unsigned char model[] = {
  0x1c, 0x00, 0x00, 0x00, 0x54, 0x46, 0x4c, 0x33, 0x14, 0x00, 0x20, 0x00,
  0x1c, 0x00, 0x18, 0x00, 0x14, 0x00, 0x10, 0x00, 0x0c, 0x00, 0x00, 0x00,
  0x08, 0x00, 0x04, 0x00, 0x14, 0x00, 0x00, 0x00, 0x1c, 0x00, 0x00, 0x00,
  0x8c, 0x00, 0x00, 0x00, 0x0c, 0x01, 0x00, 0x00, 0xb4, 0x2e, 0x00, 0x00,
  0xc4, 0x2e, 0x00, 0x00, 0xa4, 0x4b, 0x00, 0x00, 0x03, 0x00, 0x00, 0x00,
  0x01, 0x00, 0x00, 0x00, 0x04, 0x00, 0x00, 0x00, 0xf6, 0xd0, 0xff, 0xff,
  0x0c, 0x00, 0x00, 0x00, 0x1c, 0x00, 0x00, 0x00, 0x3c, 0x00, 0x00, 0x00,
  0x0f, 0x00, 0x00, 0x00, 0x73, 0x65, 0x72, 0x76, 0x69, 0x6e, 0x67, 0x5f,
  0x64, 0x65, 0x66, 0x61, 0x75, 0x6c, 0x74, 0x00, 0x01, 0x00, 0x00, 0x00,
  0x04, 0x00, 0x00, 0x00, 0x68, 0xff, 0xff, 0xff, 0x0c, 0x00, 0x00, 0x00,
  0x04, 0x00, 0x00, 0x00, 0x08, 0x00, 0x00, 0x00, 0x6f, 0x75, 0x74, 0x70,
  0x75, 0x74, 0x5f, 0x30, 0x00, 0x00, 0x00, 0x00, 0x01, 0x00, 0x00, 0x00,
  0x04, 0x00, 0x00, 0x00, 0x02, 0xd1, 0xff, 0xff, 0x04, 0x00, 0x00, 0x00,
  0x0f, 0x00, 0x00, 0x00, 0x6b, 0x65, 0x72, 0x61, 0x73, 0x5f, 0x74, 0x65,
  0x6e, 0x73, 0x6f, 0x72, 0x5f, 0x33, 0x30, 0x00, 0x03, 0x00, 0x00, 0x00,
  0x5c, 0x00, 0x00, 0x00, 0x2c, 0x00, 0x00, 0x00, 0x04, 0x00, 0x00, 0x00,
  0xb8, 0xff, 0xff, 0xff, 0x10, 0x00, 0x00, 0x00, 0x04, 0x00, 0x00, 0x00,
  0x13, 0x00, 0x00, 0x00, 0x43, 0x4f, 0x4e, 0x56, 0x45, 0x52, 0x53, 0x49,
  0x4f, 0x4e, 0x5f, 0x4d, 0x45, 0x54, 0x41, 0x44, 0x41, 0x54, 0x41, 0x00,
  0xdc, 0xff, 0xff, 0xff, 0x0f, 0x00, 0x00, 0x00, 0x04, 0x00, 0x00, 0x00,
  0x13, 0x00, 0x00, 0x00, 0x6d, 0x69, 0x6e, 0x5f, 0x72, 0x75, 0x6e, 0x74,
  0x69, 0x6d, 0x65, 0x5f, 0x76, 0x65, 0x72, 0x73, 0x69, 0x6f, 0x6e, 0x00,
  0x08, 0x00, 0x0c, 0x00, 0x08, 0x00, 0x04, 0x00, 0x08, 0x00, 0x00, 0x00,
  0x0e, 0x00, 0x00, 0x00, 0x04, 0x00, 0x00, 0x00, 0x13, 0x00, 0x00, 0x00,
  0x6d, 0x69, 0x6e, 0x5f, 0x72, 0x75, 0x6e, 0x74, 0x69, 0x6d, 0x65, 0x5f,
  0x76, 0x65, 0x72, 0x73, 0x69, 0x6f, 0x6e, 0x00, 0x11, 0x00, 0x00, 0x00,
  0xa4, 0x2d, 0x00, 0x00, 0x9c, 0x2d, 0x00, 0x00, 0x34, 0x2d, 0x00, 0x00,
  0xa4, 0x27, 0x00, 0x00, 0x94, 0x26, 0x00, 0x00, 0x84, 0x06, 0x00, 0x00,
  0x74, 0x04, 0x00, 0x00, 0xe4, 0x00, 0x00, 0x00, 0xdc, 0x00, 0x00, 0x00,
  0xd4, 0x00, 0x00, 0x00, 0xcc, 0x00, 0x00, 0x00, 0xc4, 0x00, 0x00, 0x00,
  0xbc, 0x00, 0x00, 0x00, 0xb4, 0x00, 0x00, 0x00, 0x94, 0x00, 0x00, 0x00,
  0x74, 0x00, 0x00, 0x00, 0x04, 0x00, 0x00, 0x00, 0xea, 0xd1, 0xff, 0xff,
  0x04, 0x00, 0x00, 0x00, 0x60, 0x00, 0x00, 0x00, 0x0c, 0x00, 0x00, 0x00,
  0x08, 0x00, 0x0e, 0x00, 0x08, 0x00, 0x04, 0x00, 0x08, 0x00, 0x00, 0x00,
  0x10, 0x00, 0x00, 0x00, 0x28, 0x00, 0x00, 0x00, 0x00, 0x00, 0x06, 0x00,
  0x08, 0x00, 0x04, 0x00, 0x06, 0x00, 0x00, 0x00, 0x04, 0x00, 0x00, 0x00,
  0x01, 0x00, 0x00, 0x00, 0xeb, 0x03, 0x00, 0x00, 0x0c, 0x00, 0x18, 0x00,
  0x14, 0x00, 0x10, 0x00, 0x0c, 0x00, 0x04, 0x00, 0x0c, 0x00, 0x00, 0x00,
  0x81, 0xe3, 0x66, 0xc7, 0xa7, 0x0d, 0x79, 0x14, 0x02, 0x00, 0x00, 0x00,
  0x02, 0x00, 0x00, 0x00, 0x04, 0x00, 0x00, 0x00, 0x06, 0x00, 0x00, 0x00,
  0x32, 0x2e, 0x31, 0x37, 0x2e, 0x31, 0x00, 0x00, 0x56, 0xd2, 0xff, 0xff,
  0x04, 0x00, 0x00, 0x00, 0x10, 0x00, 0x00, 0x00, 0x00, 0x00, 0x00, 0x00,
  0x00, 0x00, 0x00, 0x00, 0x00, 0x00, 0x00, 0x00, 0x00, 0x00, 0x00, 0x00,
  0x72, 0xd2, 0xff, 0xff, 0x04, 0x00, 0x00, 0x00, 0x10, 0x00, 0x00, 0x00,
  0x31, 0x2e, 0x31, 0x34, 0x2e, 0x30, 0x00, 0x00, 0x00, 0x00, 0x00, 0x00,
  0x00, 0x00, 0x00, 0x00, 0x84, 0xb6, 0xff, 0xff, 0x88, 0xb6, 0xff, 0xff,
  0x8c, 0xb6, 0xff, 0xff, 0x90, 0xb6, 0xff, 0xff, 0x94, 0xb6, 0xff, 0xff,
  0x98, 0xb6, 0xff, 0xff, 0xa6, 0xd2, 0xff, 0xff, 0x04, 0x00, 0x00, 0x00,
  0x80, 0x03, 0x00, 0x00, 0x7f, 0x5e, 0x0d, 0xf2, 0xb8, 0xf9, 0xc9, 0x1a,
  0xbe, 0x7f, 0x04, 0x21, 0xef, 0xe0, 0xb8, 0x1a, 0x23, 0x28, 0x5f, 0x25,
  0x81, 0xeb, 0x20, 0x0a, 0x21, 0xfb, 0x2e, 0x81, 0x9b, 0x7f, 0xae, 0xc4,
  0xd3, 0x48, 0x50, 0xc0, 0x1f, 0xc1, 0xe1, 0x07, 0x81, 0xfc, 0x81, 0x0d,
  0x5c, 0xd7, 0x44, 0xab, 0xbb, 0x0c, 0xb9, 0x81, 0xc3, 0x65, 0x5e, 0x1e,
  0x06, 0x01, 0x81, 0xff, 0x12, 0xfd, 0xe4, 0x59, 0x16, 0x7f, 0x1b, 0x6d,
  0x4d, 0xf3, 0x7f, 0xda, 0xc1, 0xe5, 0xcd, 0xa9, 0x26, 0xd6, 0xf7, 0x16,
  0xfd, 0xf7, 0x05, 0x81, 0x75, 0xe5, 0x7f, 0xe0, 0xdc, 0xb0, 0x30, 0x44,
  0x19, 0x81, 0x8a, 0xf9, 0xbc, 0xf0, 0x2b, 0x2f, 0xb9, 0x1c, 0xba, 0x02,
  0x81, 0x7f, 0x8b, 0xfa, 0xb4, 0xf6, 0x1d, 0x52, 0x6d, 0x39, 0x3f, 0x10,
  0xed, 0x81, 0x4b, 0x7f, 0x00, 0x30, 0x6f, 0xf2, 0xaf, 0xd3, 0x4f, 0x55,
  0x7f, 0x28, 0x51, 0x4d, 0x6c, 0x10, 0x34, 0x3d, 0xd0, 0x81, 0xf4, 0x26,
  0x0e, 0xd5, 0x81, 0x0a, 0xab, 0xf6, 0x41, 0xa6, 0x0c, 0xe3, 0x7f, 0x1b,
  0xe5, 0x28, 0xf4, 0x01, 0x2e, 0xfd, 0x81, 0xcd, 0xda, 0x21, 0x58, 0x81,
  0xfc, 0xf2, 0xf0, 0xcd, 0x37, 0x12, 0x0a, 0xec, 0x7a, 0xbb, 0x7f, 0x9d,
  0x76, 0x8d, 0x7f, 0xb1, 0xc6, 0x9c, 0xb8, 0x15, 0x81, 0xcb, 0x11, 0x01,
  0x7b, 0x81, 0x6e, 0x8a, 0xa4, 0xd5, 0x16, 0x2a, 0xf1, 0x81, 0x73, 0xd4,
  0x35, 0xeb, 0xe0, 0xf7, 0xf9, 0xa1, 0x27, 0x7f, 0x0c, 0xf3, 0x1b, 0x81,
  0x86, 0x85, 0xde, 0xa5, 0x39, 0xe3, 0xf3, 0x60, 0xf8, 0x81, 0x28, 0xc4,
  0x41, 0xe7, 0xc4, 0x4b, 0x3f, 0x4f, 0x81, 0xfd, 0x52, 0x41, 0x4f, 0x7f,
  0x1b, 0xca, 0x33, 0x26, 0xe8, 0x10, 0xbb, 0x2b, 0x81, 0x24, 0x40, 0x32,
  0x03, 0xeb, 0x7f, 0x08, 0x21, 0x7f, 0x97, 0xd0, 0x02, 0xe0, 0xc5, 0xf2,
  0x18, 0x57, 0x26, 0xb7, 0x7f, 0x7b, 0xc0, 0x52, 0x8c, 0xc3, 0x7f, 0xfd,
  0xb1, 0xe5, 0x7f, 0xd4, 0xbd, 0x31, 0x5b, 0x0b, 0xb4, 0xf1, 0x21, 0x41,
  0x7f, 0xdd, 0x4c, 0x6d, 0xe0, 0x4d, 0x7f, 0x2f, 0x2e, 0x08, 0x32, 0x81,
  0xbf, 0xef, 0x3d, 0x24, 0xde, 0x13, 0xd5, 0xe8, 0xd0, 0xad, 0x00, 0x81,
  0x9d, 0x11, 0x7f, 0xa8, 0x1f, 0x4f, 0x8a, 0x93, 0xa2, 0x49, 0x81, 0x14,
  0x1a, 0x95, 0x1f, 0xd2, 0x6b, 0xcd, 0xdb, 0x40, 0x81, 0x09, 0x5c, 0x06,
  0x81, 0x21, 0xb1, 0x66, 0x64, 0x34, 0x7f, 0x8d, 0xfc, 0x21, 0xad, 0x37,
  0xc0, 0x81, 0x13, 0x25, 0xff, 0x13, 0x7f, 0xb8, 0x59, 0x36, 0xf0, 0xaa,
  0x27, 0x43, 0xaa, 0xfb, 0xf2, 0xfb, 0xfd, 0x81, 0x09, 0xf7, 0x81, 0x25,
  0xf9, 0x24, 0xc8, 0x53, 0x3f, 0x07, 0xef, 0xe1, 0x37, 0x81, 0x2f, 0x4b,
  0xfa, 0x17, 0xe2, 0xb7, 0x7f, 0xe4, 0x5f, 0xd0, 0x0d, 0x53, 0xd8, 0x81,
  0x1b, 0xcb, 0x81, 0xe4, 0xdc, 0x11, 0xfa, 0x7f, 0x50, 0x65, 0xda, 0x67,
  0x27, 0xef, 0x7f, 0x0a, 0xbf, 0x0d, 0xf7, 0xb4, 0xbe, 0xc1, 0x9f, 0x8d,
  0x03, 0xf3, 0xfe, 0x81, 0xba, 0x81, 0x13, 0x10, 0xd4, 0x23, 0x16, 0x33,
  0x77, 0x9c, 0x90, 0x7f, 0x09, 0xa1, 0x09, 0x6e, 0x83, 0xc8, 0x7f, 0x92,
  0x24, 0xe8, 0x7f, 0xb5, 0x31, 0xcf, 0x09, 0x1c, 0xef, 0x81, 0xe8, 0xf3,
  0xbd, 0x13, 0xe6, 0x04, 0x41, 0x5e, 0xe6, 0x24, 0x7f, 0xf1, 0xf0, 0x7f,
  0xbd, 0xd8, 0x4d, 0xee, 0x5b, 0xaa, 0xa2, 0x6d, 0x58, 0x7f, 0xbd, 0x35,
  0x7f, 0x4e, 0x1e, 0x6d, 0x99, 0xed, 0xb6, 0x62, 0x7f, 0x43, 0x79, 0x57,
  0x81, 0xe9, 0x45, 0xd4, 0x19, 0x2d, 0x7f, 0xdc, 0x14, 0x96, 0xd8, 0xd3,
  0xac, 0x25, 0x7f, 0xe3, 0xe6, 0xd4, 0xdf, 0x7f, 0xed, 0x3e, 0x0d, 0x2d,
  0x42, 0xdb, 0x0c, 0x7f, 0x10, 0x06, 0xf1, 0xc3, 0x2c, 0x81, 0xc6, 0xec,
  0x30, 0xb3, 0xfa, 0xfd, 0x36, 0x27, 0xef, 0x81, 0x81, 0x92, 0xd9, 0x17,
  0xbe, 0xc5, 0x39, 0x50, 0xda, 0x7f, 0x0b, 0x8a, 0xfe, 0x1a, 0xd7, 0x7f,
  0x99, 0x17, 0x3c, 0xc7, 0xb9, 0x39, 0x12, 0x4e, 0x99, 0x81, 0xeb, 0x79,
  0x7f, 0xf6, 0x64, 0x3d, 0xbc, 0x54, 0x1b, 0x04, 0x00, 0x81, 0xf6, 0xf1,
  0x07, 0x1a, 0x26, 0x30, 0x96, 0x3b, 0x81, 0x35, 0xde, 0x81, 0x1c, 0x12,
  0x07, 0xad, 0x17, 0x40, 0x7f, 0xdf, 0xf1, 0xbb, 0x23, 0xf6, 0x34, 0x6d,
  0x30, 0x55, 0x81, 0xec, 0x65, 0xe7, 0x51, 0x81, 0xc9, 0x09, 0xfe, 0x5b,
  0xf2, 0xcc, 0x10, 0xf2, 0xdb, 0x7f, 0x35, 0x35, 0x6e, 0x12, 0x6c, 0xe4,
  0xd2, 0x20, 0x7f, 0x91, 0xc3, 0x81, 0x4c, 0xc6, 0x9a, 0x5a, 0xed, 0x81,
  0xce, 0x04, 0xd2, 0x12, 0x0d, 0x09, 0xf8, 0x81, 0x05, 0xff, 0x02, 0x15,
  0x45, 0xbe, 0xa6, 0x05, 0x81, 0x1d, 0xf5, 0x7f, 0x91, 0x6b, 0x54, 0x17,
  0xba, 0x3c, 0xe1, 0xd6, 0x02, 0xfc, 0xcc, 0x01, 0x81, 0xb8, 0x04, 0x3e,
  0x4b, 0xc4, 0xca, 0x7f, 0x1e, 0xdd, 0x0a, 0x36, 0x7f, 0xee, 0xc1, 0xc6,
  0xe1, 0x3f, 0xbb, 0x7f, 0xcb, 0xb8, 0xcf, 0xde, 0xb4, 0x7f, 0xdd, 0x39,
  0xc3, 0x26, 0xd1, 0x31, 0x95, 0xe2, 0x7f, 0xea, 0xaa, 0xad, 0x53, 0x81,
  0x6f, 0xb0, 0x64, 0xb5, 0xc3, 0x81, 0x28, 0x36, 0xc7, 0x1b, 0xad, 0x81,
  0x6e, 0xfa, 0xe2, 0x2d, 0xb7, 0xbd, 0xc4, 0xd3, 0x1f, 0x0d, 0x81, 0x86,
  0x39, 0x21, 0x81, 0xf9, 0x15, 0xf7, 0x1b, 0xf4, 0x66, 0x98, 0x5b, 0x3b,
  0x34, 0x7f, 0xfe, 0xfc, 0x5c, 0x2a, 0x82, 0xeb, 0x81, 0xcc, 0xda, 0x01,
  0x81, 0xf0, 0xe4, 0xc4, 0xff, 0xd4, 0x81, 0xe1, 0x16, 0xff, 0xba, 0x4a,
  0xc2, 0xa0, 0x7f, 0x1b, 0x79, 0x5c, 0x74, 0x65, 0xbf, 0x7f, 0x3e, 0x05,
  0x32, 0x58, 0x2b, 0x2c, 0xfe, 0x7f, 0x24, 0x23, 0xf7, 0x44, 0xbe, 0xeb,
  0x7f, 0x06, 0xc3, 0x01, 0x81, 0xf8, 0xcd, 0xc1, 0xf2, 0xb4, 0x1d, 0x12,
  0xc4, 0x0d, 0x7f, 0xfb, 0x1f, 0x39, 0x1d, 0x7f, 0x03, 0x64, 0x07, 0xdb,
  0x22, 0x0f, 0xdd, 0x04, 0x7f, 0x17, 0x18, 0xd1, 0x60, 0xfb, 0xe3, 0x81,
  0x05, 0x21, 0x1e, 0x0f, 0x1b, 0xe8, 0xb7, 0xfb, 0x81, 0x20, 0xec, 0x28,
  0xd3, 0x1c, 0xd9, 0x7f, 0xff, 0x7f, 0x21, 0x2b, 0x86, 0x24, 0x28, 0x14,
  0x28, 0x49, 0x4c, 0xe5, 0x8f, 0x81, 0xf0, 0x9a, 0xb9, 0x7f, 0x3c, 0x28,
  0x48, 0xd5, 0x03, 0x4e, 0x21, 0x7f, 0xe6, 0x4e, 0x64, 0x7f, 0x7f, 0x07,
  0x25, 0x03, 0x38, 0x81, 0x09, 0x96, 0x23, 0xae, 0x12, 0x7d, 0xc7, 0xd1,
  0x37, 0x7f, 0x10, 0x0c, 0x4a, 0x41, 0xf2, 0x66, 0x3a, 0xf1, 0xbc, 0x81,
  0x32, 0xd6, 0xff, 0xff, 0x04, 0x00, 0x00, 0x00, 0x00, 0x02, 0x00, 0x00,
  0x0b, 0xf7, 0xff, 0xff, 0xcb, 0xf8, 0xff, 0xff, 0xb3, 0xfa, 0xff, 0xff,
  0x44, 0xfc, 0xff, 0xff, 0xda, 0xfe, 0xff, 0xff, 0xf0, 0xfd, 0xff, 0xff,
  0xb2, 0xfc, 0xff, 0xff, 0x62, 0xfd, 0xff, 0xff, 0xa8, 0xfa, 0xff, 0xff,
  0xea, 0x03, 0x00, 0x00, 0x45, 0x06, 0x00, 0x00, 0xc8, 0xf5, 0xff, 0xff,
  0x16, 0x03, 0x00, 0x00, 0x84, 0x03, 0x00, 0x00, 0x05, 0xf4, 0xff, 0xff,
  0x85, 0xf0, 0xff, 0xff, 0x2b, 0xfb, 0xff, 0xff, 0xab, 0xfe, 0xff, 0xff,
  0x4e, 0x01, 0x00, 0x00, 0x87, 0xf8, 0xff, 0xff, 0x34, 0x04, 0x00, 0x00,
  0xab, 0xff, 0xff, 0xff, 0xaf, 0xf8, 0xff, 0xff, 0xd2, 0xfe, 0xff, 0xff,
  0xfb, 0xfb, 0xff, 0xff, 0x82, 0x02, 0x00, 0x00, 0x4e, 0xfa, 0xff, 0xff,
  0x51, 0xf9, 0xff, 0xff, 0x42, 0xfa, 0xff, 0xff, 0x81, 0xfb, 0xff, 0xff,
  0xbb, 0x05, 0x00, 0x00, 0xdc, 0xf5, 0xff, 0xff, 0x17, 0xf8, 0xff, 0xff,
  0x3e, 0xfb, 0xff, 0xff, 0xc1, 0xf6, 0xff, 0xff, 0x6d, 0xfb, 0xff, 0xff,
  0x01, 0x00, 0x00, 0x00, 0x51, 0xf8, 0xff, 0xff, 0x31, 0xf8, 0xff, 0xff,
  0xf6, 0x02, 0x00, 0x00, 0x25, 0xff, 0xff, 0xff, 0xa2, 0x01, 0x00, 0x00,
  0x29, 0x03, 0x00, 0x00, 0x36, 0xfc, 0xff, 0xff, 0x26, 0xfa, 0xff, 0xff,
  0x39, 0xf4, 0xff, 0xff, 0x0e, 0xfb, 0xff, 0xff, 0xe6, 0xf2, 0xff, 0xff,
  0x8e, 0xfb, 0xff, 0xff, 0x60, 0xfa, 0xff, 0xff, 0x15, 0x01, 0x00, 0x00,
  0x1b, 0xf9, 0xff, 0xff, 0x48, 0xfd, 0xff, 0xff, 0xbd, 0xfd, 0xff, 0xff,
  0xb0, 0xfb, 0xff, 0xff, 0xc0, 0xfd, 0xff, 0xff, 0x0f, 0xf9, 0xff, 0xff,
  0x88, 0xff, 0xff, 0xff, 0x2d, 0x03, 0x00, 0x00, 0xb9, 0xee, 0xff, 0xff,
  0x1a, 0xfc, 0xff, 0xff, 0xf8, 0xff, 0xff, 0xff, 0xb1, 0x01, 0x00, 0x00,
  0xf3, 0xf6, 0xff, 0xff, 0xfc, 0xfe, 0xff, 0xff, 0xcb, 0xf6, 0xff, 0xff,
  0x86, 0xec, 0xff, 0xff, 0x3c, 0xfd, 0xff, 0xff, 0x2e, 0xf8, 0xff, 0xff,
  0xee, 0xfa, 0xff, 0xff, 0x6f, 0xfb, 0xff, 0xff, 0x84, 0xfa, 0xff, 0xff,
  0x37, 0x04, 0x00, 0x00, 0x1a, 0xfe, 0xff, 0xff, 0x4f, 0xf7, 0xff, 0xff,
  0xee, 0xf7, 0xff, 0xff, 0x31, 0xfd, 0xff, 0xff, 0xac, 0xf8, 0xff, 0xff,
  0x44, 0xf9, 0xff, 0xff, 0xae, 0xf3, 0xff, 0xff, 0x34, 0xfb, 0xff, 0xff,
  0xe3, 0xfe, 0xff, 0xff, 0x71, 0xfc, 0xff, 0xff, 0xc5, 0xff, 0xff, 0xff,
  0x83, 0xf3, 0xff, 0xff, 0xba, 0xfe, 0xff, 0xff, 0x45, 0xf7, 0xff, 0xff,
  0x85, 0x02, 0x00, 0x00, 0x6c, 0xf8, 0xff, 0xff, 0xd7, 0xf9, 0xff, 0xff,
  0x23, 0xfb, 0xff, 0xff, 0x46, 0xfd, 0xff, 0xff, 0x2f, 0xf5, 0xff, 0xff,
  0xfa, 0xfa, 0xff, 0xff, 0x94, 0xf5, 0xff, 0xff, 0x43, 0x03, 0x00, 0x00,
  0xf8, 0xfd, 0xff, 0xff, 0xe0, 0x03, 0x00, 0x00, 0xf4, 0xfe, 0xff, 0xff,
  0x01, 0x01, 0x00, 0x00, 0x7c, 0xf6, 0xff, 0xff, 0xea, 0xfa, 0xff, 0xff,
  0x5a, 0x02, 0x00, 0x00, 0x76, 0xf7, 0xff, 0xff, 0x7b, 0xf8, 0xff, 0xff,
  0x52, 0x04, 0x00, 0x00, 0xb2, 0xfc, 0xff, 0xff, 0x2c, 0xf9, 0xff, 0xff,
  0x11, 0xfc, 0xff, 0xff, 0x99, 0x0c, 0x00, 0x00, 0xad, 0x00, 0x00, 0x00,
  0x83, 0xfc, 0xff, 0xff, 0xe5, 0xfb, 0xff, 0xff, 0xce, 0x08, 0x00, 0x00,
  0x13, 0xf8, 0xff, 0xff, 0x77, 0x07, 0x00, 0x00, 0xf1, 0xfc, 0xff, 0xff,
  0x3e, 0xf4, 0xff, 0xff, 0x27, 0xfc, 0xff, 0xff, 0x2a, 0xff, 0xff, 0xff,
  0x4d, 0x04, 0x00, 0x00, 0xbd, 0xf6, 0xff, 0xff, 0x6a, 0x05, 0x00, 0x00,
  0x4d, 0xf7, 0xff, 0xff, 0x24, 0xf5, 0xff, 0xff, 0xd7, 0x00, 0x00, 0x00,
  0xf9, 0xf7, 0xff, 0xff, 0x08, 0xfe, 0xff, 0xff, 0x3e, 0xd8, 0xff, 0xff,
  0x04, 0x00, 0x00, 0x00, 0x00, 0x20, 0x00, 0x00, 0x81, 0xb3, 0xf0, 0x36,
  0x1a, 0x24, 0x27, 0x0e, 0x46, 0x0b, 0xd7, 0xfe, 0x17, 0xfd, 0x5a, 0x00,
  0xf0, 0x0a, 0xf4, 0x1a, 0xef, 0x3a, 0x24, 0x54, 0x2a, 0x32, 0x14, 0xda,
  0xc2, 0x1f, 0x04, 0x36, 0x0e, 0x15, 0x3f, 0x2f, 0x3a, 0xf0, 0x2b, 0x14,
  0x1f, 0xfb, 0xe8, 0x1d, 0xe6, 0xfd, 0xd8, 0xeb, 0x03, 0x05, 0x0c, 0xc4,
  0x32, 0xfb, 0x31, 0xf0, 0xfc, 0xf9, 0x11, 0x27, 0xbe, 0xf9, 0xde, 0x94,
  0x2b, 0xee, 0x6f, 0xd9, 0xcf, 0xf5, 0xc8, 0x2a, 0x14, 0x56, 0xb9, 0xd7,
  0xf6, 0x82, 0xdc, 0x1f, 0xba, 0xf9, 0x27, 0xd2, 0x20, 0xdf, 0x02, 0xfc,
  0x1c, 0xde, 0xd3, 0xf3, 0xed, 0xdc, 0xe2, 0x28, 0xe1, 0xff, 0x45, 0xf0,
  0x3c, 0x2f, 0xdd, 0x42, 0x4d, 0x2a, 0xce, 0xc0, 0xc6, 0x04, 0x03, 0xeb,
  0xa2, 0x0a, 0x01, 0xfb, 0xd9, 0xc5, 0xdf, 0x24, 0x21, 0xf6, 0xeb, 0x3f,
  0x07, 0xd2, 0xee, 0x21, 0xff, 0x99, 0xd8, 0xe8, 0xe7, 0xfc, 0xda, 0xf2,
  0x1d, 0xf6, 0xe8, 0xb6, 0x1d, 0xfe, 0xe1, 0xe8, 0xf2, 0x27, 0xef, 0xfe,
  0xfe, 0xc7, 0xe8, 0x0d, 0xe0, 0xed, 0x21, 0xf0, 0xf4, 0xf3, 0x06, 0x0d,
  0xf1, 0x04, 0xe4, 0xf1, 0x2f, 0x00, 0xcc, 0xfb, 0xf1, 0x16, 0x11, 0x30,
  0x02, 0x0f, 0x09, 0xca, 0xf7, 0xfd, 0x00, 0xd7, 0xfe, 0xfe, 0xf3, 0xc7,
  0x52, 0xfe, 0x1f, 0xed, 0xec, 0x0e, 0x0e, 0x00, 0x10, 0x12, 0x85, 0x11,
  0x1c, 0xf4, 0xc4, 0xe6, 0xe2, 0x2d, 0x26, 0xe7, 0x06, 0x47, 0xe0, 0x1b,
  0xff, 0x20, 0x26, 0x01, 0x00, 0xff, 0xf6, 0xd1, 0xe0, 0xff, 0x34, 0x27,
  0x71, 0xfd, 0xe6, 0xed, 0xfa, 0x0a, 0xd1, 0x1b, 0xd7, 0xdf, 0xd6, 0xc1,
  0x7f, 0x14, 0x0e, 0x23, 0xe3, 0xee, 0x20, 0xd0, 0x10, 0x12, 0x30, 0x05,
  0x25, 0xf8, 0xf1, 0x11, 0xea, 0x12, 0xe7, 0x1b, 0x22, 0xe6, 0x0f, 0xef,
  0x4e, 0x13, 0xfc, 0x04, 0x16, 0xf0, 0x24, 0x22, 0xcb, 0x14, 0xec, 0xe4,
  0xe2, 0x2a, 0x22, 0x3f, 0x07, 0x14, 0x0c, 0x0b, 0xdc, 0x08, 0xf9, 0x26,
  0xde, 0x19, 0xfe, 0x28, 0x45, 0xc7, 0xfd, 0x54, 0x21, 0xe5, 0x3c, 0xdb,
  0xd3, 0x39, 0x89, 0xdb, 0x0a, 0xf7, 0x1a, 0xfb, 0x0e, 0x19, 0xf1, 0xe0,
  0x07, 0xfd, 0xf5, 0xf0, 0x0d, 0xfc, 0x18, 0xee, 0x2c, 0x1f, 0x0d, 0xb0,
  0x0a, 0xe7, 0xd3, 0x47, 0x17, 0x37, 0x37, 0xff, 0xc9, 0xe2, 0x43, 0xd7,
  0xcc, 0x6f, 0x2f, 0xa3, 0x20, 0x5b, 0xce, 0x14, 0xe7, 0xbc, 0xd4, 0xf1,
  0x58, 0x06, 0x05, 0xb8, 0x04, 0xf9, 0xad, 0x81, 0x31, 0x21, 0xfb, 0xfb,
  0x29, 0xec, 0xbb, 0xee, 0x11, 0xa7, 0xb4, 0xbf, 0x25, 0xd3, 0x37, 0xd9,
  0xd0, 0x09, 0x1a, 0x2d, 0xf0, 0x03, 0x05, 0x2a, 0x14, 0x47, 0x37, 0xe2,
  0x11, 0xf0, 0xcb, 0x3f, 0xf8, 0xf4, 0xd6, 0xeb, 0xf1, 0xfe, 0x15, 0x10,
  0xf5, 0x0b, 0x0c, 0xca, 0xcf, 0xfb, 0x14, 0xf2, 0x12, 0x10, 0x32, 0xf3,
  0x12, 0xc8, 0xe5, 0xe4, 0x06, 0xc8, 0xd7, 0x20, 0x12, 0x19, 0x06, 0x0f,
  0x49, 0xc7, 0x0d, 0xab, 0xca, 0xef, 0x19, 0xf7, 0x3a, 0x10, 0x2b, 0xf9,
  0x04, 0x10, 0xf7, 0x02, 0xfc, 0x18, 0x0b, 0x17, 0x1b, 0x0e, 0xf0, 0xbc,
  0x14, 0xe7, 0xe2, 0x1f, 0xb4, 0xf5, 0xf3, 0x15, 0x9a, 0xfd, 0x08, 0xe5,
  0x90, 0x00, 0x91, 0xd0, 0x11, 0x01, 0xad, 0x04, 0x12, 0x95, 0x3b, 0xc6,
  0xc8, 0xf1, 0x00, 0x04, 0x06, 0x61, 0xfd, 0x04, 0xee, 0x1a, 0xd7, 0xfd,
  0x2a, 0xf1, 0xd4, 0x62, 0x8c, 0x14, 0x20, 0xfd, 0xbf, 0xe9, 0x16, 0xe5,
  0xd5, 0xff, 0x95, 0xd9, 0x3b, 0x0f, 0x03, 0xd3, 0xd7, 0x1b, 0x1d, 0xe1,
  0xa4, 0xd9, 0x81, 0xf8, 0x02, 0xe0, 0xc8, 0x20, 0xee, 0xd7, 0x13, 0xb2,
  0xf9, 0xe7, 0xc7, 0xcb, 0x00, 0x1a, 0xdf, 0x08, 0xf4, 0xda, 0xf5, 0xe0,
  0x28, 0x14, 0xdd, 0x1e, 0xda, 0xdf, 0xbc, 0x18, 0xfd, 0xba, 0xef, 0x0d,
  0x05, 0x2a, 0xe3, 0x01, 0xe9, 0x08, 0x00, 0xd4, 0x3d, 0x3e, 0x06, 0xf2,
  0x17, 0xff, 0xb7, 0x09, 0xef, 0xb7, 0x16, 0xec, 0xf7, 0x16, 0x1e, 0xf6,
  0x07, 0xd6, 0x04, 0xf8, 0xf5, 0x10, 0xe2, 0x10, 0xee, 0xfa, 0xe6, 0xd8,
  0xd9, 0x0f, 0x15, 0x8d, 0xda, 0xe6, 0x11, 0xf4, 0x04, 0xfe, 0x00, 0xef,
  0xe4, 0xeb, 0xfe, 0x10, 0x0b, 0x50, 0xc0, 0x02, 0xfb, 0xa7, 0x15, 0xc2,
  0xf7, 0xe0, 0xd6, 0xff, 0x03, 0xe0, 0xf8, 0x07, 0xec, 0x10, 0xff, 0x20,
  0xab, 0xfc, 0x1e, 0x06, 0x0b, 0xf7, 0xf2, 0xf8, 0x02, 0xeb, 0xdf, 0xd6,
  0x81, 0xff, 0x00, 0xc7, 0xe3, 0x0d, 0x01, 0xea, 0x27, 0xfa, 0x0b, 0x00,
  0x34, 0x1a, 0xe0, 0x13, 0xfa, 0xfa, 0x08, 0x0b, 0xe4, 0xdf, 0xdc, 0xde,
  0x5e, 0xb6, 0x03, 0xe6, 0x1f, 0x16, 0xd5, 0xf8, 0xf0, 0x0f, 0x0f, 0x20,
  0xf9, 0xf1, 0xc7, 0xdd, 0xd0, 0xd7, 0xe4, 0x12, 0x04, 0x16, 0x2a, 0x24,
  0x21, 0xff, 0x02, 0x20, 0x2d, 0xe0, 0x12, 0x35, 0x02, 0x06, 0xe9, 0x1e,
  0x24, 0x09, 0xd6, 0xd3, 0x10, 0x02, 0x13, 0x05, 0xe3, 0xbc, 0x23, 0xca,
  0x13, 0x09, 0xe5, 0xdb, 0x1b, 0xf4, 0xf8, 0xfe, 0x1f, 0x01, 0x00, 0x35,
  0x20, 0x03, 0xbb, 0xea, 0x1f, 0x12, 0xd1, 0xed, 0x21, 0xe5, 0x2c, 0xda,
  0x0b, 0xbc, 0xbb, 0x05, 0x01, 0xeb, 0xf1, 0x0b, 0x21, 0x66, 0x2c, 0xea,
  0x2b, 0xf6, 0xf0, 0x0d, 0xf9, 0x1e, 0x27, 0x11, 0x7f, 0x0e, 0x0d, 0xe2,
  0xff, 0xec, 0xe0, 0xf5, 0x17, 0x31, 0x16, 0xee, 0x5e, 0xe0, 0xf3, 0xcb,
  0xd9, 0xed, 0xd5, 0xbd, 0x94, 0xef, 0x33, 0x03, 0xf8, 0x24, 0xfa, 0x23,
  0x12, 0xfe, 0x14, 0x29, 0x04, 0x3a, 0xf3, 0xff, 0x28, 0x19, 0x19, 0x0a,
  0x1c, 0x00, 0x0b, 0x01, 0xdc, 0xbf, 0xfc, 0x95, 0xd8, 0xfa, 0x4a, 0x22,
  0x1c, 0xec, 0xd1, 0x02, 0x13, 0xc8, 0xc2, 0x4d, 0xed, 0x21, 0x1b, 0x47,
  0x3e, 0x17, 0x18, 0xcc, 0xdd, 0x00, 0x2f, 0x37, 0x36, 0x89, 0x33, 0xe8,
  0xfb, 0x1b, 0x42, 0xca, 0x02, 0x2f, 0xc8, 0x37, 0xd4, 0x28, 0x01, 0xce,
  0x0e, 0x22, 0x2e, 0xfa, 0x34, 0xd7, 0xe5, 0x1d, 0xe8, 0xea, 0x2b, 0x4a,
  0x28, 0xe2, 0x15, 0xe9, 0x52, 0xf1, 0xdb, 0x34, 0xea, 0x81, 0x2d, 0x22,
  0x04, 0xea, 0x12, 0x0a, 0x0a, 0x18, 0xec, 0xf1, 0xad, 0xda, 0x19, 0x20,
  0xb7, 0x1f, 0xe1, 0x59, 0xcb, 0xf8, 0x96, 0x0f, 0x04, 0xed, 0x2d, 0x1c,
  0x14, 0xfd, 0x81, 0x1e, 0x64, 0x28, 0xba, 0x0d, 0x04, 0x0f, 0xf8, 0xca,
  0x8c, 0x07, 0x42, 0x00, 0xe5, 0x0b, 0x03, 0xee, 0x22, 0xc4, 0xf7, 0x0f,
  0x0e, 0x0a, 0x0f, 0xbe, 0xbb, 0x25, 0x23, 0x07, 0xf1, 0xdb, 0x10, 0x0c,
  0xfa, 0x02, 0x05, 0x0d, 0x09, 0x0e, 0x1d, 0xda, 0xfd, 0xe4, 0x12, 0xda,
  0x07, 0x05, 0xe0, 0xb6, 0x0f, 0x08, 0xf5, 0xde, 0x24, 0xea, 0x0c, 0xe0,
  0x0e, 0xe7, 0xd5, 0x26, 0xbf, 0xe1, 0x00, 0xf3, 0xfb, 0x16, 0xe3, 0x22,
  0x0d, 0x27, 0xe6, 0x1d, 0xe6, 0xf8, 0x06, 0xca, 0xda, 0xcb, 0x0d, 0xfc,
  0xc5, 0x03, 0xf6, 0x7f, 0xf2, 0x1a, 0xdc, 0xd7, 0x38, 0xeb, 0xd6, 0x12,
  0xd7, 0xf4, 0xf1, 0xff, 0xf7, 0x04, 0x16, 0x41, 0xd9, 0xc0, 0x1f, 0xc7,
  0x14, 0x11, 0x15, 0xef, 0x10, 0xec, 0xd8, 0x30, 0x1e, 0x0a, 0x20, 0xfd,
  0x86, 0xee, 0xaf, 0x0b, 0xeb, 0x02, 0xdd, 0x0b, 0xf6, 0x09, 0x3b, 0xed,
  0x2c, 0x15, 0xde, 0x0e, 0xe2, 0x1b, 0xf8, 0x22, 0xab, 0xfd, 0x0c, 0x05,
  0x3e, 0xb7, 0x05, 0xf3, 0xd9, 0xfe, 0xf8, 0xc2, 0xf7, 0x0e, 0xdf, 0xe4,
  0xe3, 0xd4, 0x11, 0xfe, 0xf4, 0x0f, 0x1a, 0xed, 0x81, 0x03, 0xdc, 0x31,
  0x02, 0xef, 0xf7, 0xce, 0xfb, 0xf9, 0x04, 0x10, 0xdb, 0x0a, 0xe7, 0xed,
  0x1f, 0x0c, 0x08, 0xda, 0x29, 0x15, 0x04, 0xf9, 0xea, 0x0c, 0xe9, 0xe2,
  0xd8, 0x28, 0xec, 0xee, 0xfc, 0xf6, 0x00, 0x04, 0xf9, 0x0f, 0xf0, 0xf2,
  0xea, 0xc8, 0x04, 0x15, 0xf1, 0x07, 0x08, 0x0c, 0xf1, 0x08, 0xe1, 0xd7,
  0x24, 0xf1, 0xed, 0x00, 0xfc, 0xf6, 0x14, 0x2e, 0x06, 0x0c, 0xde, 0x0b,
  0xeb, 0xfc, 0x24, 0x16, 0x10, 0xf7, 0xe6, 0x06, 0xfd, 0x8b, 0xfa, 0x06,
  0xd7, 0x0f, 0xde, 0x07, 0x0b, 0xf4, 0x1e, 0xd6, 0x12, 0xf4, 0x2d, 0x13,
  0x0f, 0xf6, 0xe7, 0xf5, 0xf5, 0xf9, 0xe8, 0xe3, 0x90, 0x09, 0x13, 0xf6,
  0x03, 0x08, 0xd7, 0x0e, 0x3b, 0x0e, 0xec, 0x00, 0x1c, 0x06, 0xda, 0x03,
  0xf4, 0xe5, 0x04, 0x19, 0xfa, 0xe1, 0x07, 0xf0, 0x0a, 0x02, 0x17, 0xdf,
  0xe3, 0x25, 0x04, 0x0a, 0x7f, 0x18, 0x27, 0x24, 0x04, 0xef, 0x6c, 0xd7,
  0x11, 0xf4, 0x01, 0xf9, 0xf2, 0xeb, 0xdd, 0x2d, 0x0e, 0xeb, 0xdf, 0x15,
  0x22, 0xf5, 0xef, 0x08, 0x14, 0x13, 0x16, 0xf5, 0x26, 0xfa, 0xd7, 0x0e,
  0xf5, 0xec, 0xff, 0x2c, 0x08, 0xdc, 0xdd, 0x1a, 0x00, 0x29, 0x16, 0xf7,
  0x2a, 0x09, 0x0d, 0x0e, 0x13, 0x04, 0x00, 0x74, 0xfd, 0x1a, 0x36, 0xf3,
  0x08, 0x1c, 0x34, 0x33, 0xf2, 0x12, 0xe7, 0x1e, 0x08, 0xed, 0x05, 0xfd,
  0x08, 0xb9, 0xf7, 0xea, 0x1b, 0x32, 0xed, 0x0f, 0xfd, 0xf0, 0x02, 0xee,
  0xe5, 0x07, 0xf3, 0x4b, 0xd4, 0xe3, 0x5b, 0xf3, 0x09, 0x0c, 0x10, 0x0b,
  0xf0, 0x0e, 0xf8, 0x3f, 0xf3, 0xe4, 0x01, 0xd2, 0x2f, 0xf7, 0xf4, 0x06,
  0x12, 0xf8, 0xea, 0xfd, 0x18, 0xdc, 0xe4, 0x18, 0xfb, 0x13, 0x12, 0xfb,
  0xfc, 0xd3, 0xd4, 0x10, 0xee, 0x3c, 0xd8, 0xed, 0xf2, 0x0b, 0xf1, 0xf6,
  0xa6, 0xf2, 0x1a, 0xc2, 0xe3, 0x12, 0xd3, 0xf5, 0xfc, 0xd1, 0x09, 0xdf,
  0x0d, 0xf2, 0x08, 0xfa, 0xc4, 0xf2, 0xe4, 0xe5, 0x46, 0x26, 0x17, 0x26,
  0xfa, 0xe7, 0xac, 0xbc, 0xbe, 0xb1, 0xce, 0x04, 0xfa, 0x14, 0x15, 0x19,
  0xf4, 0xeb, 0xd6, 0x0f, 0x01, 0x17, 0xed, 0xe7, 0xe0, 0xce, 0xe5, 0xcf,
  0x46, 0xf0, 0xf8, 0x6f, 0x15, 0xee, 0xef, 0x36, 0x2d, 0xfa, 0xfe, 0xcc,
  0xfa, 0xe3, 0xbd, 0x22, 0xf0, 0xbe, 0x40, 0xf3, 0xed, 0xe1, 0x81, 0x03,
  0xf5, 0x21, 0x19, 0x08, 0xea, 0xec, 0x0d, 0xd0, 0xfe, 0xf4, 0x53, 0x2d,
  0x1a, 0x22, 0xcb, 0xda, 0xe3, 0x07, 0xe3, 0xec, 0xc1, 0x21, 0x0e, 0x08,
  0x81, 0x13, 0x12, 0x10, 0xea, 0x21, 0x13, 0x0d, 0x3a, 0x25, 0xfd, 0xe7,
  0xe1, 0xcc, 0x03, 0xe8, 0xe8, 0x09, 0xf8, 0xcf, 0x16, 0xd3, 0xf1, 0x0f,
  0x27, 0x16, 0xf9, 0x09, 0xd8, 0xf9, 0xf1, 0x06, 0x1e, 0x06, 0xf2, 0xf0,
  0xf4, 0xf0, 0xfa, 0xf2, 0xf6, 0x1f, 0xf4, 0x01, 0xed, 0x05, 0x07, 0x0e,
  0xf3, 0x04, 0xff, 0xfe, 0x34, 0xfd, 0x00, 0x00, 0xf3, 0x07, 0xd4, 0xd9,
  0x14, 0xdb, 0x1f, 0x09, 0x10, 0x0e, 0x08, 0xe5, 0xeb, 0xed, 0xe5, 0x16,
  0x0c, 0xe7, 0xec, 0xfc, 0xec, 0x0e, 0xe5, 0xed, 0x04, 0xfe, 0x15, 0x81,
  0x03, 0x0f, 0xdf, 0xb0, 0x11, 0xfc, 0xca, 0xeb, 0xee, 0xf6, 0xf7, 0x02,
  0xf1, 0xbe, 0xed, 0xca, 0xeb, 0x37, 0x1d, 0xf0, 0xda, 0xf5, 0xef, 0xe2,
  0xe3, 0xf0, 0xe4, 0x13, 0xe1, 0x0f, 0x19, 0x34, 0x12, 0xe3, 0xea, 0x07,
  0x1d, 0x05, 0xfc, 0x0a, 0xf8, 0x2b, 0xe7, 0xdd, 0xdf, 0xfd, 0xe6, 0xec,
  0x22, 0x05, 0xea, 0xf2, 0xa2, 0x0f, 0xe3, 0xef, 0xd7, 0x0a, 0xec, 0xfc,
  0xf4, 0xee, 0x1a, 0x08, 0xeb, 0xd4, 0x18, 0xfb, 0x1a, 0xd7, 0x1d, 0x1b,
  0xfd, 0xe7, 0x1d, 0x0a, 0x81, 0x0a, 0xf6, 0x43, 0xf1, 0x04, 0xd4, 0xfd,
  0xec, 0xf3, 0xf1, 0xee, 0xdf, 0xf9, 0x28, 0xf3, 0xf7, 0xec, 0x23, 0x14,
  0xe9, 0x1f, 0xed, 0x16, 0xe3, 0x12, 0x17, 0xf2, 0x10, 0xc7, 0xf9, 0xfb,
  0x03, 0x12, 0x06, 0xfd, 0xf3, 0xfb, 0x15, 0xff, 0xfd, 0xe7, 0x06, 0x16,
  0xde, 0x19, 0xea, 0x20, 0x99, 0x0b, 0xe9, 0xb1, 0x29, 0xff, 0x1a, 0x1e,
  0x04, 0xea, 0xd6, 0xf5, 0x23, 0xee, 0x1b, 0xef, 0xe5, 0xf5, 0xe2, 0xd7,
  0x0d, 0x0e, 0x15, 0x15, 0x1a, 0xc7, 0xe7, 0x04, 0xbf, 0xec, 0xcb, 0xf7,
  0xdf, 0xf7, 0x21, 0xdb, 0x17, 0x09, 0x05, 0xfa, 0xf3, 0xfc, 0xe3, 0x13,
  0x26, 0x18, 0xea, 0xef, 0xe1, 0xed, 0x02, 0x28, 0xc7, 0xff, 0xea, 0x01,
  0xd4, 0xf4, 0x33, 0x0b, 0x2d, 0x15, 0x18, 0xfb, 0xea, 0x0f, 0xfe, 0xf5,
  0x02, 0x1d, 0x3c, 0xf1, 0xa7, 0xef, 0x29, 0x1a, 0x06, 0x43, 0xec, 0x28,
  0x9f, 0xe9, 0x07, 0x69, 0xd5, 0x1c, 0xe3, 0x2c, 0xdc, 0x28, 0xf3, 0xfe,
  0x29, 0xd2, 0x05, 0xba, 0xca, 0x3b, 0x0f, 0xdb, 0xe0, 0xbb, 0x1e, 0xdc,
  0x0b, 0xcf, 0x42, 0x01, 0xee, 0x03, 0x35, 0xea, 0x0a, 0xea, 0x03, 0xf8,
  0xf8, 0x0c, 0x1d, 0x00, 0xc7, 0x14, 0xd5, 0x11, 0x00, 0x17, 0x14, 0x66,
  0x58, 0x00, 0xf8, 0x50, 0x3b, 0xc3, 0xe9, 0x58, 0x1e, 0x15, 0x48, 0x20,
  0x08, 0x0c, 0x12, 0x45, 0xe0, 0xe2, 0x61, 0xf2, 0x23, 0xe4, 0x3a, 0xc8,
  0xeb, 0x6d, 0x14, 0x34, 0xc0, 0xeb, 0x3e, 0xbf, 0x1f, 0x0c, 0x6a, 0x63,
  0x77, 0x23, 0x62, 0xdc, 0xc3, 0x1a, 0x26, 0x18, 0x28, 0x34, 0x4f, 0x4a,
  0x26, 0xf4, 0x64, 0x42, 0xd5, 0x1f, 0xff, 0xa7, 0xa8, 0x1a, 0x81, 0xda,
  0xad, 0x1b, 0x0e, 0x26, 0x38, 0xe0, 0xce, 0x11, 0xf5, 0x38, 0x0b, 0x15,
  0xe5, 0xea, 0x0b, 0x25, 0xfd, 0x01, 0xea, 0x1b, 0x14, 0xdb, 0x0d, 0x50,
  0x0a, 0xff, 0x7f, 0xdb, 0xf2, 0x12, 0x1d, 0x1b, 0xf1, 0xf6, 0x0c, 0xcc,
  0x16, 0xf9, 0x45, 0x00, 0xbf, 0xd4, 0x2b, 0x0f, 0xfd, 0x1b, 0xda, 0x2a,
  0xe1, 0x3d, 0x10, 0x09, 0x21, 0xe6, 0xdf, 0x36, 0x00, 0xe1, 0xe1, 0xed,
  0xe7, 0xe6, 0x13, 0xe1, 0xe8, 0xf9, 0x27, 0x23, 0x7c, 0xf1, 0xf4, 0xe8,
  0x06, 0xdb, 0xd9, 0x1e, 0xd6, 0xf2, 0xe6, 0x1e, 0x2d, 0x01, 0x3e, 0xf6,
  0x00, 0xeb, 0xf1, 0x05, 0x06, 0x01, 0xfa, 0x1f, 0x28, 0x09, 0x10, 0xf2,
  0x24, 0x08, 0x26, 0xe4, 0xe8, 0x20, 0xf1, 0xde, 0x14, 0xed, 0x44, 0x12,
  0xfe, 0xe7, 0xec, 0x1a, 0xfe, 0x24, 0xf7, 0xd9, 0x99, 0x0b, 0x37, 0x05,
  0x04, 0xff, 0x1a, 0x00, 0xb2, 0x0c, 0x3e, 0x0d, 0x04, 0x36, 0x0d, 0xec,
  0x0d, 0xef, 0x14, 0x32, 0xec, 0xe7, 0x21, 0x01, 0x11, 0xa9, 0xe3, 0xdd,
  0x1f, 0x0e, 0xdb, 0xff, 0xc9, 0x14, 0x0d, 0x89, 0x0f, 0xdd, 0xc5, 0xdd,
  0xf7, 0x22, 0x15, 0x08, 0x0b, 0xe1, 0xf0, 0x22, 0xdf, 0x07, 0xd7, 0x06,
  0x81, 0x1e, 0xe4, 0xd8, 0x12, 0x08, 0x23, 0xdc, 0x3f, 0x10, 0xe2, 0xfb,
  0x00, 0x0c, 0xd2, 0xf0, 0xf3, 0xf0, 0xcc, 0x27, 0xef, 0xc3, 0xd3, 0x06,
  0x1f, 0xea, 0x25, 0x25, 0x47, 0x09, 0x09, 0x81, 0x03, 0x23, 0xe2, 0x64,
  0x0d, 0xdc, 0x12, 0x07, 0x05, 0x05, 0x1d, 0x0a, 0x06, 0xc6, 0x30, 0xbe,
  0xfd, 0xa6, 0x11, 0xeb, 0xe5, 0x0c, 0xe4, 0x2d, 0xd6, 0xe3, 0xbb, 0xe4,
  0x06, 0x14, 0xc1, 0xc2, 0xc4, 0xd5, 0x22, 0xe6, 0x17, 0xe8, 0x32, 0xd5,
  0xf4, 0xf4, 0xf1, 0xe7, 0x10, 0xfd, 0x0c, 0x24, 0xbe, 0xf4, 0x15, 0x11,
  0x59, 0xe4, 0x3d, 0x06, 0x11, 0x1f, 0xef, 0x07, 0x15, 0xfc, 0xeb, 0x12,
  0x05, 0x39, 0x40, 0xfa, 0x01, 0xcb, 0xdf, 0xff, 0x05, 0xf7, 0x13, 0x10,
  0x2c, 0xef, 0xec, 0xda, 0xfc, 0x11, 0x1a, 0xd7, 0xfb, 0x0f, 0xf1, 0xf8,
  0x16, 0x26, 0xef, 0x23, 0xf6, 0xff, 0xd9, 0xee, 0xca, 0x00, 0x16, 0xe3,
  0xf4, 0xe9, 0xf5, 0xf2, 0x07, 0xdf, 0xc7, 0x18, 0xfe, 0xea, 0x16, 0xe0,
  0xf2, 0x18, 0xea, 0x04, 0x0b, 0xe9, 0xe1, 0xef, 0xf7, 0x07, 0x04, 0xed,
  0x25, 0xea, 0x05, 0x22, 0x2c, 0xe1, 0x2a, 0x20, 0x13, 0xe7, 0xab, 0x1d,
  0xfa, 0xf2, 0xd8, 0x12, 0x0b, 0xad, 0x1e, 0xcd, 0x1e, 0xf7, 0xd7, 0xd6,
  0x04, 0xf9, 0x24, 0xe5, 0xe9, 0x09, 0x20, 0xeb, 0xe6, 0xf8, 0x33, 0x43,
  0x2a, 0xd0, 0xa5, 0x0a, 0x11, 0xfb, 0x20, 0xfa, 0x14, 0xfd, 0x1f, 0x19,
  0xc2, 0x15, 0xf5, 0x12, 0xfb, 0x06, 0xe4, 0xe0, 0x81, 0xec, 0xec, 0xe9,
  0xe1, 0xd5, 0xff, 0xeb, 0xf1, 0x1b, 0x00, 0x1a, 0xf0, 0x23, 0xf0, 0xfd,
  0xf9, 0xe8, 0x25, 0x30, 0x16, 0xcf, 0xdd, 0xfe, 0xd3, 0x2a, 0xdc, 0xe2,
  0xdf, 0xdd, 0xe0, 0xc5, 0x0b, 0xd4, 0x15, 0xdf, 0xe0, 0xcf, 0x06, 0x19,
  0xf7, 0xf7, 0xdf, 0x1a, 0xd0, 0x40, 0xe8, 0x0a, 0x0f, 0x1b, 0xc7, 0xe2,
  0xdf, 0x0a, 0x00, 0x13, 0xee, 0x1d, 0xf5, 0xcd, 0xf0, 0x13, 0x0b, 0xf5,
  0x1b, 0x00, 0x0a, 0xe8, 0x0e, 0xf3, 0xf3, 0x43, 0xb5, 0xf9, 0x06, 0x7f,
  0xbf, 0xdd, 0x32, 0xa6, 0xc5, 0x0c, 0x74, 0xf2, 0xea, 0x11, 0xf3, 0xf3,
  0xf7, 0x74, 0xf0, 0x1b, 0xf4, 0xea, 0xe2, 0xc2, 0x04, 0xa1, 0xe2, 0xdf,
  0x09, 0xdd, 0xd1, 0x04, 0x45, 0x01, 0xcf, 0x91, 0xbc, 0x00, 0xe2, 0xda,
  0x10, 0xe8, 0xf2, 0xb3, 0xcf, 0xdd, 0xb5, 0x3a, 0x36, 0x1a, 0xf2, 0xde,
  0xe8, 0x15, 0x0d, 0x11, 0x30, 0xff, 0xf7, 0x20, 0x19, 0xd4, 0xdc, 0x1d,
  0xf5, 0xe9, 0x11, 0x33, 0x1c, 0x0d, 0xc9, 0xe0, 0x34, 0x98, 0xe9, 0x06,
  0x24, 0x21, 0xe7, 0x05, 0x39, 0x08, 0xf6, 0xf9, 0xe7, 0xf9, 0xdf, 0xc9,
  0x06, 0x37, 0xe5, 0xe6, 0x0d, 0x12, 0xdf, 0x4a, 0xf7, 0xf0, 0x2d, 0x04,
  0x8b, 0x34, 0x0d, 0xd3, 0x0a, 0xea, 0x0f, 0xf8, 0x07, 0x0f, 0x2b, 0xdf,
  0x02, 0x07, 0xff, 0xeb, 0x09, 0xf0, 0xf1, 0x23, 0xe9, 0x27, 0x12, 0x02,
  0x31, 0x26, 0xff, 0x37, 0xe7, 0x15, 0x16, 0xef, 0xe8, 0x1a, 0x2e, 0xc5,
  0x2f, 0x05, 0x7f, 0xea, 0x35, 0x1d, 0xfe, 0x18, 0xf7, 0x77, 0x2c, 0x2c,
  0x28, 0xc9, 0xed, 0x32, 0xf4, 0x5b, 0xcc, 0xf9, 0x29, 0xf8, 0x0f, 0x0c,
  0x1d, 0x1a, 0x18, 0x03, 0xa4, 0xeb, 0xb5, 0xe7, 0x0f, 0x12, 0xdd, 0xfa,
  0x11, 0x40, 0x3a, 0x0d, 0x07, 0x12, 0xe7, 0xfe, 0x32, 0x18, 0x3c, 0x03,
  0x5a, 0xda, 0x24, 0xf4, 0x1d, 0xf5, 0xe1, 0xf9, 0xfd, 0xed, 0x05, 0xcf,
  0xff, 0x23, 0x10, 0x21, 0xde, 0xe4, 0xf7, 0xeb, 0x00, 0xeb, 0x11, 0x08,
  0x81, 0x0e, 0xf9, 0x13, 0xf7, 0x08, 0xd7, 0x24, 0xfe, 0xd2, 0xfe, 0x06,
  0x0c, 0x1d, 0x0d, 0x09, 0x07, 0x08, 0xf3, 0x21, 0x29, 0xee, 0x05, 0x1c,
  0xdd, 0xff, 0xbb, 0xfb, 0x23, 0xfb, 0xe8, 0xdd, 0x06, 0xf9, 0x0d, 0xe9,
  0xfc, 0xf5, 0xf4, 0xeb, 0xe7, 0x02, 0x0c, 0x00, 0xe0, 0xf5, 0x04, 0xe0,
  0xac, 0x03, 0xf2, 0xc3, 0x08, 0x16, 0x0e, 0x48, 0xbd, 0xec, 0xc7, 0xd4,
  0x0e, 0x09, 0x04, 0xea, 0x08, 0xc7, 0x28, 0xd0, 0x00, 0x27, 0x2a, 0x20,
  0x1f, 0x1a, 0x15, 0x02, 0xde, 0xf4, 0x00, 0xf2, 0x02, 0xed, 0xf3, 0x1d,
  0x15, 0x07, 0x9f, 0xf5, 0x10, 0x05, 0xe4, 0x0a, 0x02, 0x0a, 0x17, 0x27,
  0xda, 0x11, 0xd4, 0x24, 0xc3, 0xfa, 0xf7, 0x0a, 0x25, 0xdd, 0x1c, 0x0a,
  0x05, 0x1a, 0xfa, 0x0a, 0x06, 0x13, 0xfe, 0xe6, 0xfd, 0xe2, 0xf8, 0xed,
  0xd7, 0xb6, 0xd0, 0x00, 0x0f, 0x0f, 0xe4, 0x1a, 0xed, 0x1b, 0x0d, 0xd0,
  0xd1, 0x05, 0x03, 0xdf, 0x12, 0x1e, 0xea, 0xf6, 0x00, 0x16, 0x05, 0xe7,
  0xf4, 0x10, 0x10, 0xff, 0xfe, 0x12, 0xed, 0x07, 0x11, 0xf3, 0xf0, 0xf5,
  0xdf, 0x10, 0xba, 0x06, 0xed, 0x19, 0x0e, 0xe5, 0xe9, 0xda, 0xf9, 0xe1,
  0x07, 0xb8, 0x0e, 0x0e, 0xef, 0xf5, 0xdd, 0xd4, 0xb9, 0xeb, 0x0f, 0x81,
  0xbf, 0x29, 0x2b, 0xf3, 0xcc, 0xe0, 0xf4, 0xe2, 0xe5, 0xea, 0xd4, 0xfc,
  0xfc, 0x28, 0xf4, 0x91, 0xf2, 0xe6, 0x11, 0xc5, 0xfe, 0xb4, 0xf4, 0x0f,
  0xce, 0xf0, 0x24, 0xda, 0xc5, 0x14, 0xb0, 0x8e, 0xe7, 0x0d, 0xc4, 0x1f,
  0x12, 0x09, 0xe8, 0xfa, 0xf6, 0xcd, 0xae, 0xdd, 0xc3, 0x25, 0x09, 0xe0,
  0x15, 0xe9, 0x01, 0x05, 0x8c, 0xf3, 0xd6, 0x18, 0x17, 0x14, 0xfb, 0xfd,
  0x1d, 0xd2, 0xe1, 0xfe, 0x0c, 0x1f, 0xf9, 0x0c, 0x01, 0xec, 0xdc, 0xee,
  0x06, 0xf7, 0xf4, 0xf6, 0x81, 0xf9, 0x05, 0xd2, 0x09, 0x04, 0x01, 0x17,
  0xf2, 0x19, 0x02, 0xfe, 0xe6, 0xee, 0xe9, 0xdd, 0x0e, 0x0a, 0xfb, 0x02,
  0x36, 0xf7, 0x0a, 0xd7, 0x04, 0xf5, 0xf7, 0xf4, 0xfc, 0xed, 0x17, 0xf0,
  0xf0, 0x03, 0xfe, 0xea, 0xfd, 0x1c, 0x0f, 0xfa, 0xfb, 0xec, 0x0c, 0x03,
  0xfd, 0xff, 0x0c, 0xea, 0xa0, 0x0a, 0x0a, 0xab, 0x21, 0xe7, 0xfe, 0xe7,
  0xfb, 0xf7, 0xd1, 0xed, 0xf2, 0xef, 0x08, 0xef, 0x01, 0xaf, 0xd7, 0xdf,
  0x06, 0xf1, 0x16, 0xdd, 0x0f, 0xe2, 0xf1, 0x02, 0x1c, 0x03, 0xf5, 0xe6,
  0xfe, 0x08, 0x0e, 0xfa, 0xe1, 0xe9, 0xba, 0x0d, 0x0c, 0x0c, 0xec, 0x14,
  0xec, 0xf7, 0x2a, 0x05, 0x0b, 0x11, 0x0d, 0xde, 0xdc, 0x0c, 0xf3, 0xf8,
  0xbd, 0x00, 0xe4, 0x07, 0xf1, 0x05, 0xe2, 0xe8, 0x08, 0x14, 0xff, 0xd6,
  0xff, 0x1c, 0xfa, 0xfd, 0xd3, 0xd1, 0xda, 0xd6, 0xf7, 0x21, 0x23, 0x23,
  0x34, 0xe8, 0xe6, 0xc1, 0xef, 0xf0, 0xf9, 0x0b, 0x0b, 0xfd, 0xff, 0x0b,
  0x2b, 0xd0, 0x2c, 0xd1, 0x06, 0xf3, 0x04, 0xe7, 0x1a, 0xf4, 0xfd, 0x0f,
  0xcf, 0x07, 0xa0, 0x29, 0xe9, 0x11, 0xe7, 0xf7, 0x0b, 0xff, 0x04, 0x09,
  0x00, 0xf4, 0x12, 0x31, 0x05, 0x28, 0xf6, 0x2b, 0xf5, 0xb6, 0xf9, 0xc8,
  0x08, 0x0e, 0x00, 0x07, 0xd7, 0xd1, 0x22, 0x0c, 0xf3, 0xe5, 0x81, 0xed,
  0x06, 0xef, 0xe9, 0xfa, 0xec, 0x05, 0xb8, 0x1f, 0xf8, 0x8a, 0x30, 0xd8,
  0xc1, 0x2a, 0xfa, 0xe7, 0x14, 0xef, 0xd3, 0x40, 0x2b, 0x15, 0xce, 0xfe,
  0xa6, 0xd0, 0x3f, 0x00, 0x0c, 0xf0, 0xef, 0x05, 0xfe, 0x24, 0xbf, 0xde,
  0xda, 0xef, 0x28, 0x27, 0xef, 0x1f, 0x07, 0xea, 0xd4, 0xec, 0xe3, 0xf7,
  0x32, 0x24, 0xf3, 0xfc, 0xe7, 0x1d, 0xef, 0x01, 0xd8, 0xed, 0x20, 0x19,
  0x15, 0xf3, 0xc6, 0xd5, 0xf2, 0x01, 0xf5, 0x19, 0x83, 0x15, 0x19, 0xb0,
  0xe7, 0x0a, 0xaf, 0xf7, 0x16, 0x17, 0xe1, 0x09, 0x15, 0xf2, 0xf2, 0xd2,
  0xe7, 0xf4, 0x18, 0x21, 0x29, 0xdf, 0x23, 0xee, 0x0a, 0xed, 0xe4, 0xda,
  0xed, 0x39, 0xf1, 0xfc, 0x0d, 0xf4, 0xec, 0x13, 0xfe, 0xf4, 0x20, 0xee,
  0x03, 0x24, 0x23, 0x18, 0x05, 0x16, 0xfb, 0x0f, 0x63, 0x02, 0xf0, 0xdc,
  0x00, 0xf0, 0x1d, 0xdb, 0x52, 0xeb, 0x51, 0x2c, 0xe1, 0xeb, 0x33, 0xe1,
  0x0b, 0xd6, 0xe8, 0xb5, 0x09, 0x7f, 0xe2, 0x25, 0xea, 0xd2, 0x16, 0x24,
  0xe2, 0x20, 0x2a, 0x1d, 0xf9, 0x21, 0x3d, 0xc2, 0x1c, 0x1c, 0x5f, 0x19,
  0x01, 0xec, 0xe5, 0xef, 0xf3, 0x06, 0x0b, 0x1c, 0x31, 0x08, 0x18, 0xee,
  0xe8, 0x0a, 0x03, 0xdc, 0x0e, 0xfe, 0xfd, 0xf3, 0x2c, 0x19, 0xef, 0xfd,
  0x10, 0xfa, 0x0c, 0x27, 0xf6, 0x34, 0xed, 0x0a, 0xc4, 0x02, 0xeb, 0xec,
  0x16, 0x15, 0x18, 0x12, 0xcb, 0xf7, 0x1e, 0x0c, 0xfc, 0xf3, 0x0d, 0x2e,
  0xf9, 0x02, 0x0d, 0x04, 0x19, 0xd6, 0x10, 0xe0, 0xf9, 0x16, 0xfe, 0xf0,
  0x3e, 0xd8, 0x12, 0xf8, 0xfa, 0x01, 0xf0, 0x14, 0xe5, 0xfc, 0xd8, 0x04,
  0x07, 0x0e, 0xf8, 0x04, 0xf7, 0xee, 0xfa, 0x10, 0xf8, 0xf8, 0xf7, 0xe6,
  0x08, 0xd0, 0xff, 0x1e, 0xeb, 0x05, 0x0d, 0x7f, 0xfb, 0xf4, 0xe9, 0xcb,
  0xf1, 0xf8, 0x3d, 0x25, 0xde, 0x0d, 0x0c, 0xed, 0xf2, 0x06, 0x0f, 0x0c,
  0xec, 0x17, 0xf8, 0x1c, 0x18, 0xf4, 0x23, 0xf0, 0x22, 0x08, 0xfe, 0x11,
  0xf0, 0x05, 0x3d, 0xc1, 0x0f, 0xee, 0x2a, 0x0f, 0xef, 0x04, 0x02, 0x0b,
  0xec, 0x06, 0xd7, 0x10, 0x40, 0x04, 0x39, 0x1d, 0x06, 0x0d, 0x12, 0x21,
  0xcd, 0xf4, 0xbf, 0x06, 0xd0, 0x11, 0xfc, 0x1a, 0xf7, 0xee, 0x0a, 0x21,
  0x09, 0xea, 0xc8, 0x07, 0x29, 0xbe, 0x1b, 0xe1, 0xf1, 0xf7, 0xdd, 0xfe,
  0x81, 0x0e, 0xed, 0x0e, 0xda, 0x03, 0x18, 0xd7, 0xec, 0x2b, 0xfc, 0xfd,
  0x13, 0xdb, 0x12, 0x1d, 0x16, 0xe9, 0xe0, 0xe5, 0xb4, 0x14, 0xe7, 0x02,
  0xef, 0x0c, 0xf8, 0xde, 0x0c, 0x04, 0x1c, 0x03, 0xfb, 0x23, 0xf7, 0x14,
  0xef, 0xf4, 0xfa, 0xc8, 0x0a, 0x1f, 0x13, 0x23, 0x17, 0x0f, 0x1c, 0x0c,
  0xfc, 0x0a, 0x19, 0xf0, 0x11, 0xdd, 0xe4, 0xe0, 0x41, 0x0c, 0xea, 0x0d,
  0xf5, 0x0b, 0x1a, 0xdb, 0x0e, 0x62, 0x11, 0xe3, 0x1a, 0xe9, 0xdf, 0x09,
  0xf0, 0x05, 0x01, 0xe3, 0x26, 0x01, 0x18, 0xf6, 0x0e, 0x17, 0x24, 0xe9,
  0xf8, 0x10, 0xd3, 0xf6, 0xfd, 0x10, 0x0e, 0xec, 0xf7, 0xfc, 0xe1, 0x07,
  0x5b, 0xeb, 0x0b, 0xcf, 0xd8, 0x06, 0x14, 0x16, 0x33, 0xf2, 0xde, 0x09,
  0xe5, 0xd0, 0x0e, 0xeb, 0xf1, 0x07, 0x10, 0xec, 0xe0, 0xf6, 0xcd, 0x05,
  0x13, 0x11, 0x03, 0x11, 0xf3, 0x18, 0xe8, 0xe6, 0xb8, 0x0b, 0xed, 0x45,
  0xfb, 0xd7, 0xd5, 0x0b, 0xfc, 0x09, 0x0f, 0x11, 0x09, 0x30, 0x23, 0xcc,
  0xca, 0xee, 0xdd, 0xe2, 0x7f, 0x02, 0xe8, 0xde, 0x1b, 0x0c, 0xca, 0xea,
  0xfd, 0xb6, 0x2e, 0xf1, 0xe5, 0xf0, 0xf3, 0x00, 0x0a, 0xf8, 0x1c, 0x0e,
  0x0e, 0xe5, 0xfb, 0x0a, 0x0b, 0x14, 0xe9, 0xfd, 0xba, 0x00, 0xe8, 0xa0,
  0xf4, 0x1e, 0xc1, 0x01, 0x07, 0xe8, 0xd9, 0x03, 0xff, 0xfd, 0xfb, 0xef,
  0x02, 0xe7, 0x0e, 0x1f, 0xec, 0x09, 0xd5, 0x0f, 0xed, 0xfb, 0x18, 0xe5,
  0xda, 0xf8, 0xec, 0xdb, 0x00, 0xe6, 0xed, 0x22, 0xbe, 0x0d, 0xbc, 0x07,
  0x19, 0x02, 0xe6, 0xf4, 0xdd, 0x17, 0x49, 0xf3, 0xa4, 0xed, 0xe4, 0xe3,
  0xd8, 0x11, 0x06, 0xd9, 0x36, 0x19, 0xcc, 0xf9, 0xfd, 0xe0, 0xf7, 0xe2,
  0x05, 0xfb, 0x08, 0xee, 0x11, 0xe5, 0x22, 0x1e, 0x0c, 0xf7, 0x04, 0x0e,
  0x0c, 0xfa, 0xec, 0x02, 0xf8, 0xf5, 0xff, 0xb1, 0xe1, 0xff, 0xb7, 0x20,
  0xf4, 0xd9, 0x0e, 0x04, 0x06, 0x19, 0xf2, 0x0c, 0x05, 0xef, 0xde, 0x0a,
  0xd2, 0x02, 0xf8, 0x03, 0x0c, 0x12, 0xe7, 0xed, 0x09, 0x02, 0x2f, 0xeb,
  0x12, 0x00, 0xfe, 0x1d, 0x01, 0xe4, 0x12, 0x0e, 0x16, 0xfa, 0xe5, 0x11,
  0x13, 0xf9, 0xf2, 0x13, 0x7f, 0xf3, 0x0d, 0x2a, 0xfa, 0x1d, 0x02, 0xc2,
  0xff, 0x0d, 0x38, 0x21, 0xf6, 0xfa, 0x11, 0xfb, 0xef, 0x3f, 0x11, 0x06,
  0x02, 0x3d, 0x20, 0x12, 0xeb, 0x0c, 0x06, 0xec, 0x1b, 0xfd, 0xfd, 0x23,
  0x19, 0xfc, 0x09, 0x28, 0xdf, 0xf0, 0xbd, 0xf6, 0x0d, 0x0b, 0x14, 0xf8,
  0x10, 0x0d, 0xff, 0x04, 0x34, 0x04, 0xd9, 0xdb, 0x15, 0x10, 0xed, 0x11,
  0x41, 0xf3, 0xd1, 0x12, 0x09, 0xfe, 0xe4, 0x02, 0xee, 0x01, 0x0e, 0x1c,
  0x10, 0x0d, 0x16, 0xf6, 0xde, 0x0d, 0xf0, 0x2d, 0xf9, 0xfd, 0xe9, 0xe3,
  0x09, 0xe1, 0x28, 0xfa, 0xe9, 0xfa, 0xe9, 0xcd, 0xf2, 0x30, 0x0a, 0xd3,
  0xfb, 0xe3, 0x06, 0xe4, 0x0a, 0x1b, 0xf7, 0x0a, 0x40, 0xbf, 0xf0, 0x35,
  0x10, 0x10, 0x2d, 0x13, 0xfc, 0xf1, 0xbc, 0xe7, 0xef, 0x1b, 0x10, 0xee,
  0x0d, 0xd5, 0xfb, 0xe1, 0xf6, 0xd8, 0x29, 0xec, 0xe1, 0x1b, 0xff, 0x0e,
  0x6f, 0x09, 0x12, 0x69, 0x2d, 0x1e, 0x13, 0x09, 0x7f, 0x14, 0x37, 0xd8,
  0x33, 0x01, 0x22, 0xff, 0xea, 0x0e, 0xc0, 0x48, 0x10, 0x9e, 0xc2, 0xe3,
  0xe1, 0x0e, 0xf1, 0x22, 0xff, 0xee, 0x08, 0xfc, 0xd1, 0x08, 0x31, 0xe2,
  0xf3, 0xe9, 0x45, 0x0e, 0x13, 0x01, 0xf5, 0x02, 0xee, 0x05, 0xe6, 0x06,
  0x62, 0x08, 0xe8, 0xce, 0xf6, 0xe5, 0xe2, 0x15, 0x04, 0x0f, 0xf3, 0x11,
  0x16, 0x02, 0x35, 0xd9, 0x14, 0xfe, 0xf4, 0x2d, 0x14, 0xf1, 0x0f, 0x2a,
  0x20, 0xfb, 0xf4, 0x2e, 0xf8, 0xe8, 0xd5, 0xda, 0xbc, 0xef, 0x09, 0x02,
  0x25, 0xfe, 0xee, 0xe0, 0xe9, 0x1a, 0xfd, 0xf9, 0x0d, 0x16, 0x09, 0x2e,
  0xea, 0x00, 0xec, 0x14, 0x81, 0xdc, 0xf3, 0xf2, 0xdf, 0xf6, 0xe5, 0xf8,
  0xee, 0xb3, 0x2a, 0xe5, 0x0c, 0xea, 0xe7, 0x06, 0xfd, 0x03, 0xf3, 0xf8,
  0xfa, 0xda, 0x2b, 0xfe, 0x1f, 0xf6, 0xff, 0xf3, 0x57, 0xee, 0xe9, 0x30,
  0xb6, 0xf1, 0xc1, 0x91, 0x29, 0xce, 0x2c, 0xcd, 0xe3, 0xe6, 0x12, 0xfb,
  0x03, 0xf2, 0xd6, 0x03, 0xe7, 0xd8, 0xe8, 0x24, 0x0d, 0x00, 0x11, 0xe6,
  0xe9, 0x1a, 0xeb, 0xe6, 0xf9, 0xf4, 0x2e, 0xa8, 0x1d, 0xed, 0x23, 0xd9,
  0x08, 0xf6, 0xee, 0x06, 0xcb, 0x0e, 0xe2, 0xf1, 0x2e, 0xdf, 0x08, 0x13,
  0xb9, 0xea, 0x04, 0xe4, 0x24, 0x10, 0x14, 0xf0, 0xc3, 0xd6, 0x0d, 0xf5,
  0x18, 0xe1, 0x02, 0x09, 0x05, 0x1d, 0xd7, 0x13, 0xce, 0x40, 0x01, 0x17,
  0x12, 0xfa, 0x12, 0xe8, 0x1e, 0xe5, 0x14, 0xdf, 0xe0, 0xf9, 0xc6, 0x14,
  0x06, 0x0d, 0x0f, 0x04, 0x1a, 0x28, 0xf8, 0xcd, 0xde, 0xe7, 0x05, 0x0a,
  0x14, 0xdf, 0x10, 0xd5, 0x12, 0xf6, 0xcb, 0xe9, 0x09, 0xfd, 0xd2, 0xee,
  0x05, 0x14, 0x12, 0x0f, 0x03, 0x12, 0x0b, 0x13, 0x06, 0x03, 0x10, 0x1d,
  0xe8, 0x13, 0xf1, 0x07, 0xf0, 0xef, 0x11, 0x81, 0xb9, 0xe3, 0xd6, 0x3b,
  0x07, 0x0f, 0x10, 0xf0, 0x14, 0x0c, 0xe1, 0xe7, 0x16, 0xc8, 0xca, 0xe9,
  0xd9, 0x01, 0x1d, 0xeb, 0xee, 0xf6, 0x1c, 0xf2, 0xfc, 0x14, 0x02, 0xdc,
  0xe2, 0xe1, 0xe5, 0x3c, 0xfd, 0xee, 0xf0, 0xf1, 0x08, 0x03, 0xfb, 0x1a,
  0x05, 0xdb, 0x08, 0x05, 0xbe, 0x1c, 0x00, 0xee, 0xee, 0x0c, 0x11, 0xe8,
  0xfd, 0x07, 0xc0, 0x09, 0xe5, 0xe0, 0x06, 0xeb, 0x04, 0x0b, 0xff, 0xe2,
  0xf3, 0xf7, 0x16, 0xfe, 0x0f, 0xe3, 0x34, 0x10, 0xf6, 0x07, 0x18, 0x19,
  0x55, 0x01, 0xeb, 0x44, 0xf6, 0x09, 0xc1, 0x06, 0xf4, 0xf5, 0x13, 0xf8,
  0xfb, 0xed, 0xfa, 0x04, 0xdb, 0xfc, 0x2f, 0x28, 0x22, 0x08, 0xfc, 0xf1,
  0xfc, 0x16, 0xf5, 0xd7, 0x1a, 0xca, 0x13, 0x15, 0x01, 0x1b, 0x13, 0xe5,
  0x06, 0xf1, 0xec, 0x25, 0x06, 0x16, 0x15, 0xe9, 0x15, 0x1c, 0x19, 0x0e,
  0xee, 0x0b, 0xfc, 0x28, 0xda, 0x2d, 0xe2, 0x39, 0xd6, 0x15, 0x15, 0x09,
  0xf7, 0x03, 0x04, 0x21, 0x16, 0x37, 0x2e, 0x35, 0xf9, 0x2c, 0xd7, 0xde,
  0xed, 0xfc, 0xd8, 0x05, 0x12, 0x04, 0x0d, 0xed, 0x06, 0xed, 0x32, 0x12,
  0xf9, 0x06, 0x15, 0x07, 0xfb, 0x0e, 0xff, 0xec, 0xe6, 0x36, 0xfc, 0x27,
  0x9e, 0xf0, 0x25, 0x07, 0x23, 0xe5, 0x0f, 0xdf, 0x7f, 0x0b, 0xfa, 0xfd,
  0xed, 0x1b, 0x2f, 0x13, 0x02, 0xfb, 0xfb, 0x0b, 0xe8, 0xec, 0x42, 0xfb,
  0xd0, 0x13, 0x11, 0x22, 0xe8, 0xf8, 0x24, 0xf6, 0x2c, 0xff, 0x06, 0x61,
  0x1b, 0x0f, 0x18, 0xc7, 0xfa, 0x0a, 0xe2, 0xc8, 0xd4, 0x2a, 0xff, 0x18,
  0xda, 0x22, 0xdc, 0xb0, 0xd8, 0xdf, 0xe9, 0x27, 0x08, 0x09, 0xbf, 0x3a,
  0xdf, 0x46, 0x25, 0xd0, 0xf1, 0xda, 0xd2, 0x1e, 0xf2, 0x1e, 0xef, 0x11,
  0x03, 0xde, 0xf6, 0x12, 0x0c, 0x27, 0xe1, 0x2e, 0xfd, 0x0e, 0x14, 0xa4,
  0xd5, 0x03, 0x16, 0x97, 0xef, 0xf5, 0x99, 0xfe, 0x14, 0xef, 0xb3, 0xee,
  0x1b, 0x81, 0x28, 0x04, 0xdf, 0x03, 0xf5, 0xd8, 0xf3, 0x0c, 0xeb, 0xba,
  0xf2, 0xf9, 0xe0, 0x01, 0xdf, 0xf4, 0x21, 0xbd, 0xfa, 0xcd, 0xf8, 0x04,
  0xe7, 0xfa, 0xf0, 0x1b, 0xe1, 0x31, 0x2c, 0xc7, 0xba, 0x07, 0xe8, 0xed,
  0x27, 0xed, 0xca, 0xe5, 0x09, 0xe9, 0xc2, 0xf8, 0xb4, 0x06, 0x04, 0x07,
  0xfd, 0xff, 0xe3, 0x14, 0x16, 0xfe, 0x9c, 0xeb, 0xeb, 0xb1, 0xce, 0xce,
  0x0e, 0x04, 0x10, 0x27, 0x1c, 0xfd, 0xfe, 0xbd, 0xf4, 0x0c, 0x05, 0xe3,
  0x15, 0xe2, 0xda, 0xd4, 0xeb, 0x33, 0x33, 0xd0, 0x0b, 0x24, 0x1a, 0x28,
  0x2d, 0xd3, 0xea, 0xde, 0xe6, 0xee, 0x20, 0xfa, 0xe2, 0xf6, 0xd8, 0x13,
  0xf9, 0x1b, 0x0a, 0x14, 0xfa, 0xd8, 0x13, 0x1a, 0x15, 0x15, 0x23, 0x2a,
  0xfc, 0x18, 0x11, 0xdc, 0xed, 0x0f, 0x06, 0x0d, 0xd3, 0x1b, 0x34, 0x21,
  0x06, 0xe6, 0x27, 0xf4, 0xc8, 0xf7, 0xfd, 0xe3, 0xfb, 0xbc, 0x07, 0x19,
  0x21, 0x81, 0x27, 0xc6, 0x26, 0x19, 0x16, 0xf4, 0xe9, 0xf7, 0x3a, 0x27,
  0xcf, 0xf9, 0x26, 0x3d, 0x2a, 0xd5, 0xb8, 0x06, 0x06, 0x00, 0x24, 0x2b,
  0xf4, 0x02, 0x33, 0xf9, 0xcf, 0xe3, 0xfc, 0xc0, 0x00, 0xf4, 0x18, 0xed,
  0xe1, 0x17, 0x1a, 0xf3, 0xe2, 0xed, 0xc6, 0xef, 0xf3, 0x03, 0xf8, 0xac,
  0xfe, 0x20, 0x2b, 0x16, 0x58, 0xfa, 0xc7, 0xd5, 0x04, 0xec, 0x0c, 0x16,
  0x12, 0x00, 0x06, 0xd3, 0xf4, 0x1e, 0x81, 0x09, 0xf2, 0xd6, 0x12, 0xec,
  0xd0, 0x13, 0xe2, 0x17, 0xfe, 0xe2, 0xcc, 0xf7, 0x3f, 0xf4, 0x03, 0x16,
  0x16, 0xf6, 0xb5, 0xea, 0x0a, 0xc3, 0xb9, 0xf8, 0x02, 0x1c, 0xf6, 0xe4,
  0x08, 0x33, 0x08, 0xe5, 0x26, 0x1f, 0x00, 0xf4, 0xde, 0xe9, 0x06, 0xcc,
  0x6b, 0x0b, 0x10, 0xd4, 0x06, 0xe2, 0x0d, 0x15, 0x0a, 0x01, 0x8d, 0xeb,
  0xce, 0x01, 0xe7, 0x20, 0xe9, 0x1f, 0x22, 0xbe, 0x14, 0x25, 0x11, 0xd8,
  0x18, 0xfa, 0xf6, 0xf3, 0xeb, 0xf4, 0xdd, 0xda, 0xd8, 0xe8, 0x05, 0xd8,
  0x5f, 0xeb, 0x8d, 0xd8, 0x08, 0xf9, 0xd5, 0x17, 0x1f, 0xfa, 0x28, 0x07,
  0x78, 0xd3, 0xf3, 0x29, 0x05, 0xf3, 0xf8, 0xf7, 0x25, 0x1b, 0x87, 0x18,
  0xe9, 0x15, 0xfc, 0xe6, 0x09, 0xdb, 0xed, 0xf7, 0xe6, 0xcf, 0xf9, 0x1e,
  0xcb, 0xb9, 0x0b, 0x28, 0xf7, 0x09, 0xcb, 0x05, 0xf4, 0xeb, 0xe0, 0xf5,
  0xc7, 0x17, 0x7e, 0x1c, 0x02, 0x02, 0x13, 0x04, 0x0d, 0x0c, 0xd9, 0x01,
  0x30, 0x00, 0xf7, 0xdd, 0xca, 0x29, 0x1b, 0xd6, 0x01, 0xfc, 0x2e, 0xee,
  0xe5, 0xc9, 0xbf, 0x27, 0xf2, 0x1c, 0xff, 0xe4, 0xf9, 0x01, 0xe4, 0xfb,
  0xfa, 0xd3, 0x15, 0xf7, 0xfb, 0x19, 0xec, 0xe5, 0xc0, 0xf7, 0x0e, 0xc2,
  0xda, 0x2d, 0xe2, 0xc2, 0x9d, 0x12, 0x2f, 0x1d, 0x1c, 0x0a, 0xfe, 0xfd,
  0xfc, 0x37, 0x02, 0x1c, 0xe5, 0xa9, 0x1c, 0x13, 0x19, 0xf5, 0xed, 0xef,
  0x3a, 0x06, 0xf8, 0x25, 0xff, 0xf4, 0xa5, 0x14, 0x00, 0xf1, 0x23, 0x19,
  0x0f, 0x06, 0x30, 0x11, 0xe1, 0xca, 0xba, 0xf3, 0x7f, 0x09, 0xbe, 0xd4,
  0xb7, 0x1f, 0x20, 0x2b, 0xd9, 0xe3, 0xfc, 0xf3, 0xfa, 0xc7, 0xe5, 0x14,
  0xd8, 0xf1, 0xf0, 0x09, 0xd4, 0x0a, 0x0e, 0x0e, 0x3c, 0xf7, 0xf8, 0x16,
  0xf5, 0x13, 0x0d, 0xde, 0x81, 0xec, 0x0f, 0x11, 0x04, 0xe9, 0xaa, 0x09,
  0xf4, 0x0c, 0x07, 0x15, 0x1e, 0x22, 0x03, 0xe3, 0x07, 0xfe, 0xe1, 0x05,
  0x00, 0xe4, 0x15, 0xfb, 0xd9, 0x0e, 0xff, 0x1c, 0x06, 0x32, 0xcb, 0xfb,
  0xef, 0xfe, 0xf1, 0xdc, 0xfc, 0x0b, 0xec, 0x23, 0x15, 0x06, 0x01, 0x0e,
  0xf3, 0x1a, 0xed, 0x10, 0xe5, 0x13, 0x0b, 0xae, 0x09, 0x1f, 0x05, 0x06,
  0xe2, 0xf5, 0x0e, 0xf7, 0x3e, 0x02, 0xbb, 0x03, 0xfa, 0xa2, 0x2d, 0xed,
  0xfd, 0xf8, 0xcf, 0xf2, 0xea, 0x0d, 0xf4, 0x17, 0xe4, 0x00, 0x0a, 0xd1,
  0xe1, 0x06, 0x12, 0xe3, 0x3a, 0x06, 0x06, 0x1a, 0xee, 0xf0, 0x0f, 0xf2,
  0xec, 0xe9, 0x09, 0x13, 0xed, 0xe7, 0xfd, 0x15, 0xc6, 0x01, 0x03, 0x18,
  0xc7, 0x08, 0xfd, 0x16, 0xe0, 0x21, 0xda, 0xe0, 0x0a, 0x05, 0xe7, 0xfb,
  0x06, 0xec, 0x32, 0xfb, 0x27, 0xd4, 0xe2, 0x0a, 0x03, 0xe8, 0xec, 0xe7,
  0x17, 0xf9, 0xe2, 0xe7, 0x1c, 0xee, 0xb4, 0x2f, 0xfb, 0xfc, 0xf6, 0xee,
  0x1c, 0x08, 0x23, 0xb6, 0x28, 0xff, 0x0b, 0x0a, 0xbc, 0x02, 0xfe, 0x29,
  0x04, 0x17, 0xc9, 0x2e, 0xea, 0xde, 0xd9, 0x08, 0x12, 0x06, 0x0e, 0xfa,
  0xf7, 0xea, 0x17, 0x2a, 0xef, 0xfc, 0x09, 0xf9, 0x17, 0x1d, 0xe5, 0xca,
  0xa9, 0x14, 0xdd, 0xf8, 0x27, 0xe4, 0x26, 0xac, 0x08, 0x26, 0x11, 0x10,
  0x17, 0x0b, 0x01, 0xe3, 0x00, 0xaa, 0x42, 0x2a, 0xff, 0xed, 0xec, 0xed,
  0x14, 0xb8, 0xf4, 0x10, 0x38, 0x1a, 0xc3, 0xf3, 0x0f, 0x1e, 0x5b, 0xfd,
  0x0b, 0x35, 0xf3, 0x1e, 0xed, 0x11, 0xed, 0x0c, 0xfb, 0x2f, 0xef, 0x03,
  0xd5, 0xec, 0x18, 0xc2, 0x1c, 0x09, 0xdb, 0x24, 0x3d, 0x13, 0x7f, 0xe4,
  0x04, 0x12, 0x19, 0x0d, 0xf4, 0x23, 0x07, 0x32, 0x0e, 0x20, 0x5c, 0xfe,
  0xef, 0x21, 0x0e, 0xd7, 0x14, 0x16, 0x07, 0xf5, 0xba, 0x14, 0xf7, 0x81,
  0xf0, 0x0b, 0xd6, 0x08, 0xed, 0xfa, 0x15, 0xf7, 0x17, 0xe1, 0xef, 0x26,
  0x07, 0xe5, 0xed, 0xe0, 0x45, 0xe9, 0x11, 0x02, 0xe4, 0xea, 0xe8, 0xd9,
  0xe4, 0xd2, 0x04, 0xe8, 0x17, 0xec, 0x19, 0x14, 0x05, 0xff, 0xfb, 0xe8,
  0x0a, 0xef, 0x0b, 0xf6, 0xeb, 0x07, 0xe5, 0x1f, 0x37, 0xeb, 0x1a, 0xf9,
  0x1e, 0xd7, 0xfc, 0x10, 0x1e, 0xe1, 0xf7, 0x33, 0xde, 0xf0, 0xef, 0xef,
  0x05, 0xef, 0xe7, 0xbd, 0xf9, 0x29, 0xf6, 0x02, 0xda, 0xf8, 0xfe, 0x06,
  0xec, 0xf6, 0xf2, 0x04, 0xfd, 0xf3, 0x2f, 0xc8, 0x55, 0x03, 0xea, 0xf9,
  0xf3, 0x18, 0xee, 0xfe, 0xef, 0xec, 0xe6, 0xff, 0x25, 0xef, 0xda, 0xf5,
  0x0f, 0xfc, 0xee, 0x15, 0x26, 0x1b, 0xb5, 0x16, 0xca, 0x16, 0x0e, 0xeb,
  0xee, 0x0e, 0xf8, 0x33, 0x02, 0xf4, 0xe3, 0x04, 0x51, 0xc1, 0xef, 0xfd,
  0xec, 0x0a, 0x0e, 0x12, 0x7f, 0x02, 0x24, 0xdb, 0x3b, 0xf2, 0xbf, 0x43,
  0x2b, 0xd8, 0x04, 0x0f, 0xda, 0xee, 0xc7, 0x29, 0x13, 0x00, 0xf1, 0x05,
  0xa0, 0x0a, 0xee, 0x18, 0x10, 0x09, 0xb9, 0x25, 0xf6, 0x30, 0x36, 0xe6,
  0x10, 0xf5, 0x2c, 0xd1, 0xf6, 0x2b, 0xce, 0x2e, 0xf4, 0x26, 0x17, 0x20,
  0x2d, 0xd4, 0xf2, 0x36, 0x4a, 0xf7, 0xe0, 0xeb, 0x39, 0xf6, 0xe8, 0xc4,
  0x23, 0xe0, 0xe3, 0xda, 0x00, 0x03, 0xf1, 0x13, 0x10, 0x1f, 0xec, 0x02,
  0x1b, 0x13, 0x20, 0xf6, 0x2c, 0xb8, 0x17, 0xe7, 0x02, 0x05, 0x0c, 0x05,
  0x29, 0x1a, 0x23, 0x26, 0x17, 0xf5, 0x24, 0xe8, 0xf8, 0x00, 0x08, 0xe4,
  0xf9, 0x0c, 0x11, 0xf3, 0x41, 0xf1, 0xbf, 0xce, 0x3d, 0xf7, 0xec, 0x37,
  0x6d, 0x03, 0xf8, 0xe8, 0x2e, 0xde, 0xdd, 0x0d, 0x0c, 0xda, 0x0c, 0xef,
  0x02, 0xdb, 0xc5, 0xe9, 0x2b, 0xc6, 0xd1, 0xe7, 0xec, 0xe0, 0x12, 0xed,
  0x06, 0xf0, 0x1b, 0xa4, 0x01, 0x1b, 0xbb, 0xec, 0x07, 0x1c, 0x14, 0xf3,
  0x05, 0x06, 0x2a, 0xeb, 0x0b, 0xf7, 0xfc, 0xd1, 0xd8, 0xe1, 0xfd, 0xf0,
  0xf3, 0x0c, 0x0d, 0x16, 0x10, 0x0c, 0xee, 0xf0, 0xf4, 0xf7, 0xe7, 0xec,
  0x07, 0x0f, 0xe0, 0xe0, 0x11, 0x25, 0x17, 0xe3, 0xf4, 0x05, 0xf0, 0xcb,
  0xd1, 0x0b, 0xf4, 0xca, 0x08, 0x07, 0xf5, 0xeb, 0x43, 0x09, 0x29, 0xd4,
  0x21, 0xfa, 0xd9, 0x13, 0xf3, 0x44, 0xca, 0xc7, 0x1c, 0x01, 0xca, 0x21,
  0xe2, 0xf4, 0x0c, 0xfa, 0x20, 0x0e, 0x22, 0xd2, 0x2a, 0x0d, 0xe0, 0x14,
  0x48, 0xe8, 0xda, 0x1c, 0xe6, 0xdd, 0x0e, 0x0b, 0xe4, 0xdc, 0x24, 0x24,
  0x7f, 0xf4, 0xe1, 0x13, 0xd9, 0xed, 0x06, 0xfc, 0xc0, 0xf2, 0xf0, 0xf9,
  0xf3, 0xee, 0xf3, 0x0a, 0xed, 0xfb, 0xf9, 0xf2, 0xea, 0x1b, 0xe6, 0xe7,
  0x05, 0xd7, 0x20, 0xfa, 0xe6, 0xef, 0xeb, 0xec, 0x03, 0x02, 0x04, 0x16,
  0xfe, 0xf4, 0xda, 0x0a, 0x00, 0xfa, 0xf2, 0x0c, 0xfd, 0xe8, 0x14, 0xd6,
  0xe6, 0xf9, 0xf7, 0x0a, 0xbf, 0x15, 0x0c, 0x19, 0xf7, 0x19, 0x0d, 0xf8,
  0xd5, 0xfa, 0xf0, 0x00, 0xe9, 0xfd, 0x09, 0xe9, 0x05, 0x01, 0x08, 0xf5,
  0xf3, 0x05, 0x08, 0xeb, 0x0e, 0x04, 0x04, 0x11, 0x13, 0xeb, 0x1f, 0x7f,
  0x34, 0xec, 0xf5, 0xa2, 0x15, 0xe9, 0x23, 0xeb, 0x06, 0x03, 0x15, 0xff,
  0x10, 0xe4, 0x18, 0x39, 0xf0, 0x39, 0x06, 0xfa, 0x1c, 0xe6, 0xde, 0xfd,
  0xfe, 0xf5, 0x17, 0xfe, 0x1f, 0x1a, 0x3a, 0x4e, 0x2d, 0x07, 0x54, 0xfd,
  0x15, 0xf7, 0x19, 0x12, 0xcd, 0x0f, 0xe7, 0x2d, 0x44, 0x04, 0xf3, 0x1a,
  0xe9, 0x0e, 0xec, 0xdc, 0x2c, 0x0a, 0x25, 0xf2, 0xfe, 0xfe, 0xee, 0xf2,
  0xec, 0x22, 0x0a, 0xf4, 0xf4, 0xe7, 0x14, 0xf8, 0x05, 0xf7, 0x3d, 0xf2,
  0xe9, 0xf5, 0xf5, 0xeb, 0x47, 0x22, 0xf6, 0x0e, 0x25, 0x24, 0x12, 0x31,
  0xff, 0xca, 0x11, 0xf6, 0xea, 0x97, 0x04, 0xf1, 0xf4, 0xf8, 0xe9, 0x32,
  0xfd, 0xeb, 0x2c, 0x12, 0x19, 0xe9, 0x0a, 0x1d, 0x2a, 0xbf, 0xdc, 0xc2,
  0x0f, 0xf8, 0x3b, 0xfa, 0xe7, 0xeb, 0xef, 0x0d, 0xd3, 0x17, 0x17, 0x33,
  0x40, 0x0c, 0xf7, 0xed, 0x46, 0xf9, 0x21, 0xb6, 0x2a, 0xe2, 0xc0, 0x7f,
  0x57, 0x16, 0x10, 0x2c, 0xd5, 0x02, 0xd0, 0x16, 0x00, 0x1a, 0xc9, 0xd6,
  0xed, 0x00, 0xc5, 0xe2, 0x47, 0x31, 0x0d, 0xf7, 0xf2, 0xde, 0x2b, 0xe5,
  0x2e, 0xf1, 0x56, 0x53, 0x58, 0xfc, 0x5a, 0xfb, 0x1a, 0xfc, 0xe0, 0xd5,
  0xce, 0xa0, 0x23, 0x51, 0x8a, 0xdf, 0xeb, 0x26, 0x13, 0x06, 0xd6, 0x04,
  0x8b, 0x1e, 0xb8, 0x31, 0xf8, 0xb4, 0x2d, 0x19, 0x25, 0x33, 0xf3, 0xf7,
  0x1f, 0x48, 0xd7, 0x1e, 0xf9, 0xd0, 0xea, 0x0f, 0xe3, 0x08, 0x0c, 0x00,
  0x1d, 0x07, 0x10, 0xea, 0x0b, 0xfb, 0x81, 0x25, 0x01, 0xea, 0xef, 0x12,
  0x14, 0x17, 0x25, 0x24, 0xf1, 0x0b, 0xe0, 0xca, 0xa8, 0x0e, 0x09, 0x10,
  0xe9, 0x01, 0xba, 0x15, 0x13, 0xd5, 0xf4, 0xda, 0x0e, 0xee, 0x0e, 0xf8,
  0x09, 0x0a, 0xfe, 0xeb, 0xf9, 0x0c, 0x16, 0x1b, 0x0c, 0xfa, 0x15, 0x17,
  0x01, 0x07, 0x05, 0xeb, 0xd3, 0x22, 0x00, 0x03, 0xec, 0xf7, 0xe3, 0x01,
  0xfd, 0xf6, 0xe7, 0xec, 0x15, 0x2c, 0xd8, 0xf7, 0x10, 0xd2, 0x2e, 0xef,
  0x0d, 0x09, 0x11, 0xec, 0x2f, 0x15, 0x21, 0x02, 0xd3, 0x15, 0xdd, 0xe2,
  0x1f, 0x0d, 0x35, 0xfc, 0x12, 0xf7, 0x0a, 0xfa, 0xf5, 0xfe, 0x17, 0x28,
  0xf1, 0xee, 0xde, 0xc1, 0x0c, 0x0b, 0xe0, 0xfc, 0x03, 0xf3, 0xb5, 0x0f,
  0xed, 0xe5, 0xf2, 0x01, 0xee, 0xff, 0x0d, 0x08, 0xf3, 0xed, 0x15, 0xf6,
  0x31, 0x0e, 0xe0, 0xfc, 0x06, 0xec, 0xf5, 0xe2, 0xba, 0x19, 0xf8, 0x03,
  0x21, 0xf8, 0x0f, 0x3f, 0x0e, 0x31, 0x05, 0x12, 0x09, 0xe3, 0x18, 0xe6,
  0x1d, 0xf9, 0xea, 0x1d, 0xd9, 0xfc, 0xfd, 0x26, 0xe3, 0x03, 0xc0, 0xec,
  0xf9, 0xd7, 0xe2, 0xf6, 0xe3, 0x21, 0xec, 0x17, 0x01, 0x03, 0xf8, 0xea,
  0x14, 0xda, 0xf1, 0x08, 0xf5, 0xe2, 0xec, 0x31, 0x07, 0x15, 0xff, 0x3c,
  0xd8, 0x13, 0xdd, 0xcd, 0x22, 0xf7, 0xec, 0x02, 0x34, 0x16, 0x17, 0x0c,
  0xe1, 0xe6, 0xda, 0xb9, 0x09, 0x7f, 0x37, 0xf7, 0xfa, 0xe4, 0x07, 0x00,
  0xeb, 0x1a, 0x09, 0xfd, 0xee, 0x01, 0x28, 0x11, 0x26, 0x17, 0xa7, 0xf5,
  0xe9, 0x18, 0xf2, 0x22, 0xf0, 0xee, 0xf4, 0xde, 0xbc, 0x0a, 0x0a, 0x03,
  0xe2, 0x11, 0x23, 0xf8, 0x07, 0xe9, 0xe4, 0xf2, 0xde, 0x10, 0xfb, 0xf6,
  0x11, 0x21, 0x01, 0x06, 0x09, 0xfb, 0xd2, 0xf5, 0x2b, 0xb6, 0x2a, 0x08,
  0xe8, 0xec, 0x1e, 0x16, 0xd4, 0xda, 0x14, 0xb4, 0xe9, 0xde, 0xe5, 0x07,
  0xe1, 0xdf, 0xee, 0xf8, 0x13, 0xde, 0xf9, 0xc8, 0x09, 0x02, 0xfe, 0xfa,
  0xe8, 0xd8, 0xee, 0xbb, 0x16, 0xef, 0x2e, 0x16, 0xc3, 0x1d, 0x1e, 0x01,
  0x00, 0x06, 0x14, 0xc0, 0xed, 0xe7, 0xd4, 0x08, 0x03, 0xf1, 0x09, 0xdd,
  0x1d, 0xf0, 0x08, 0xee, 0x81, 0xe5, 0xe4, 0xe2, 0xd5, 0xbc, 0x0c, 0x39,
  0x99, 0xea, 0xa5, 0x12, 0xf2, 0xee, 0xce, 0xfe, 0xf9, 0x14, 0x06, 0xea,
  0x00, 0x32, 0x35, 0xff, 0x15, 0x00, 0xff, 0xe8, 0xea, 0x00, 0xd1, 0x1d,
  0xfc, 0xf2, 0xc0, 0x05, 0x0b, 0x05, 0xb7, 0xf3, 0x19, 0x13, 0xda, 0xf2,
  0x2a, 0xee, 0xf0, 0x07, 0xf0, 0xf7, 0xe4, 0x20, 0xf1, 0xfd, 0x22, 0x13,
  0xdd, 0x0a, 0xa7, 0xf0, 0xf0, 0x0c, 0xf7, 0x0e, 0x04, 0xe7, 0x05, 0x11,
  0xe4, 0xfd, 0xcc, 0xe6, 0x05, 0xc6, 0xde, 0xf6, 0x0f, 0x07, 0x0d, 0x03,
  0x0e, 0xf8, 0x07, 0x07, 0x0f, 0x03, 0x46, 0x16, 0x02, 0xe1, 0xed, 0x10,
  0x11, 0x10, 0xf9, 0x3e, 0xe9, 0x00, 0xe4, 0x01, 0xc8, 0xd1, 0x0a, 0xdc,
  0x11, 0x05, 0xec, 0x19, 0x0d, 0xd9, 0xde, 0x0a, 0xf3, 0xf6, 0x02, 0xff,
  0x08, 0x09, 0xf4, 0xf9, 0xfe, 0xed, 0x09, 0x09, 0x2e, 0xf6, 0x02, 0xf5,
  0x58, 0xfe, 0xfb, 0x11, 0x04, 0xed, 0x25, 0x11, 0x00, 0x15, 0xad, 0xcc,
  0x13, 0xec, 0xcd, 0xde, 0xf4, 0xd1, 0xd4, 0x22, 0x08, 0xb1, 0x06, 0xc9,
  0xf0, 0x3b, 0x2b, 0x06, 0xe7, 0xec, 0x11, 0x0e, 0xf3, 0xf6, 0xce, 0x1e,
  0x34, 0x03, 0x36, 0xe1, 0xef, 0xf7, 0xf0, 0x0a, 0xe9, 0xc1, 0xbb, 0xe4,
  0x7f, 0x16, 0x01, 0x1f, 0x17, 0x12, 0xff, 0x14, 0xc7, 0xfe, 0xff, 0xeb,
  0xe1, 0xe2, 0x1a, 0x00, 0xfa, 0x18, 0x07, 0x0c, 0xff, 0x1f, 0x06, 0x06,
  0xfb, 0x20, 0xcc, 0xd6, 0xe6, 0x0b, 0xd9, 0x1a, 0x1e, 0xf8, 0x1b, 0x0a,
  0x0c, 0x14, 0xf6, 0x04, 0xfe, 0x16, 0xf3, 0x05, 0xfa, 0xde, 0x1e, 0xdf,
  0x06, 0xed, 0x0a, 0xec, 0xd6, 0xef, 0xf0, 0x06, 0xfa, 0xdc, 0x32, 0x12,
  0x00, 0xed, 0xe7, 0xe2, 0xf5, 0x07, 0xff, 0xf0, 0x01, 0xd3, 0xfb, 0xcd,
  0x09, 0x12, 0xff, 0xf1, 0xf2, 0x23, 0xec, 0xfa, 0x29, 0xfe, 0xf8, 0xb9,
  0x0f, 0xeb, 0xe9, 0xfb, 0x42, 0x04, 0xa3, 0x0c, 0xe1, 0x00, 0xfd, 0xe7,
  0xf0, 0x2c, 0xe1, 0xda, 0x0d, 0xd4, 0xaa, 0xed, 0xf6, 0xf8, 0xe8, 0xfe,
  0xe8, 0x05, 0xec, 0xd5, 0x04, 0xe8, 0xe0, 0x1d, 0xf2, 0xe2, 0xf9, 0x03,
  0xf0, 0xe3, 0x00, 0xfe, 0xe3, 0xfa, 0x0e, 0xea, 0x47, 0x07, 0x0f, 0xcf,
  0x1d, 0x09, 0xdb, 0xe4, 0x81, 0x12, 0x08, 0xfa, 0x0b, 0xdf, 0x0f, 0x09,
  0xff, 0xd5, 0x02, 0xf2, 0xe5, 0x1a, 0xf6, 0xec, 0xd6, 0xfe, 0xf1, 0x07,
  0xfa, 0x16, 0xef, 0x02, 0x08, 0x0c, 0xef, 0xd5, 0x1e, 0xda, 0xbb, 0xdb,
  0xef, 0xfa, 0xe3, 0x14, 0x03, 0x05, 0x10, 0x0d, 0xf6, 0x01, 0xfe, 0xec,
  0x4c, 0x1d, 0xfc, 0xd5, 0x0f, 0x0b, 0x39, 0x01, 0xe3, 0x32, 0xbd, 0x08,
  0x0c, 0xf3, 0x1b, 0x0b, 0x07, 0xe2, 0x1f, 0xf8, 0xf6, 0xfd, 0x1c, 0x2e,
  0xe2, 0xf9, 0x07, 0x1a, 0xb7, 0x15, 0x12, 0x81, 0x2e, 0x16, 0x0f, 0xef,
  0xea, 0x05, 0x69, 0xfa, 0x15, 0xfa, 0x23, 0xd0, 0xfe, 0x38, 0xcf, 0xcd,
  0x07, 0xcf, 0xd4, 0x14, 0xd6, 0x31, 0x0d, 0x1d, 0xfa, 0xfe, 0x2e, 0xf2,
  0xf9, 0x00, 0x0b, 0x18, 0x20, 0x30, 0xd2, 0x28, 0xf6, 0x12, 0xf8, 0xd9,
  0x10, 0x09, 0x11, 0x1d, 0x85, 0xfd, 0xfc, 0xc9, 0xfa, 0x04, 0xd5, 0x09,
  0xd7, 0x01, 0xb2, 0xf1, 0xca, 0xe7, 0xe7, 0x1f, 0x07, 0x05, 0x01, 0xe0,
  0x15, 0x2d, 0x0f, 0x1e, 0x04, 0x68, 0xe6, 0xed, 0x42, 0x09, 0xf0, 0xff,
  0xb1, 0x26, 0x27, 0x6b, 0x22, 0x2f, 0xd0, 0x46, 0x07, 0xb8, 0x0b, 0xea,
  0x21, 0xc1, 0xea, 0xf6, 0xea, 0x14, 0x35, 0x01, 0x7f, 0xb5, 0xf6, 0x17,
  0x1c, 0x0f, 0xe2, 0x01, 0x49, 0xc9, 0xf0, 0xe0, 0xf2, 0x09, 0xf2, 0x0f,
  0x14, 0xed, 0x2e, 0x3b, 0x25, 0x03, 0x14, 0xda, 0xd3, 0xc8, 0x04, 0x2e,
  0xf1, 0x1d, 0x20, 0xf6, 0x11, 0xf2, 0x0b, 0xf8, 0xe8, 0xf7, 0xb3, 0x15,
  0xca, 0x19, 0xe1, 0xea, 0xe7, 0x90, 0x1f, 0x3a, 0x11, 0x2b, 0x4f, 0x45,
  0xe3, 0x60, 0x18, 0x17, 0xe9, 0xf0, 0xca, 0xe5, 0x3f, 0x2e, 0x0a, 0x3b,
  0x39, 0x27, 0x86, 0x36, 0x13, 0xf1, 0xf3, 0x04, 0xf4, 0xf2, 0xa5, 0xfc,
  0x2a, 0x12, 0x40, 0x07, 0x1d, 0x0c, 0x0f, 0x26, 0x9b, 0xf3, 0x41, 0x19,
  0xf5, 0x38, 0x36, 0xf5, 0x16, 0x16, 0xf3, 0x40, 0x23, 0x44, 0x11, 0x0e,
  0xf0, 0xd5, 0xe5, 0xfc, 0x06, 0x0d, 0x11, 0x02, 0xf3, 0x0d, 0xe0, 0x20,
  0xe1, 0x16, 0x03, 0xc5, 0x03, 0x10, 0x16, 0x0b, 0xd3, 0x24, 0xfe, 0x1f,
  0x02, 0x09, 0xf2, 0x24, 0xad, 0xde, 0x06, 0x11, 0x13, 0x04, 0xf0, 0x0e,
  0x42, 0xb7, 0x3a, 0x23, 0xe2, 0xfa, 0xf8, 0xef, 0x01, 0xde, 0x13, 0x05,
  0xf2, 0x1b, 0x15, 0xd3, 0xd4, 0x2e, 0xfc, 0x1c, 0x4a, 0xfc, 0xde, 0xaf,
  0x96, 0xf9, 0xbf, 0x6f, 0x26, 0xe3, 0xf1, 0xce, 0xed, 0x14, 0x10, 0xe8,
  0xed, 0x5a, 0xe5, 0xe6, 0x00, 0xcc, 0xf5, 0xd6, 0xcd, 0xd3, 0x2f, 0xf0,
  0x2d, 0xe7, 0xda, 0xd0, 0xe4, 0xf8, 0xbc, 0x81, 0xd2, 0x1e, 0x0c, 0xe4,
  0x10, 0xf7, 0x05, 0x10, 0x24, 0xb4, 0x18, 0xd3, 0x9c, 0xfa, 0xf4, 0xd9,
  0xda, 0x16, 0xe5, 0x0f, 0x2e, 0xea, 0xce, 0x17, 0x13, 0xf7, 0x17, 0xff,
  0x02, 0xf4, 0xe7, 0x3d, 0xf6, 0x3b, 0x45, 0x25, 0x21, 0xc1, 0x05, 0x05,
  0x05, 0x13, 0x12, 0xfb, 0xac, 0xf9, 0x05, 0x2f, 0xff, 0x14, 0x05, 0x03,
  0x0f, 0xdd, 0xf8, 0x02, 0xea, 0x0e, 0xe9, 0x10, 0xf8, 0x01, 0xc5, 0xea,
  0x05, 0xe9, 0x1a, 0xf3, 0x04, 0xed, 0xeb, 0x13, 0x13, 0x0d, 0x02, 0xfd,
  0x03, 0xea, 0x10, 0x1b, 0x0f, 0xee, 0x16, 0xe2, 0xf9, 0x0d, 0xf2, 0x10,
  0x14, 0x13, 0x01, 0xfb, 0xb0, 0xf4, 0xf7, 0xda, 0x1c, 0xf5, 0xe9, 0x05,
  0x30, 0x05, 0x36, 0x0a, 0xe1, 0xef, 0xda, 0x1b, 0xf6, 0xf2, 0xd9, 0x08,
  0x11, 0x26, 0x2b, 0xdd, 0xf6, 0xa0, 0xe6, 0xfe, 0x1b, 0xf6, 0xfd, 0x17,
  0xe1, 0xf8, 0xca, 0x81, 0xf4, 0x0a, 0xf3, 0xf4, 0xf6, 0xf3, 0x1d, 0x1a,
  0xeb, 0x10, 0x39, 0x0c, 0x2c, 0xdd, 0xe0, 0x24, 0x0e, 0xe6, 0xd2, 0xf5,
  0xd2, 0x19, 0x9e, 0xfe, 0xfe, 0xf0, 0x0e, 0x03, 0xf0, 0x0a, 0x07, 0xee,
  0x08, 0xf0, 0x0b, 0x04, 0xef, 0x15, 0x11, 0x16, 0x1f, 0xdd, 0x0c, 0x1b,
  0x90, 0xed, 0xf3, 0x10, 0x43, 0xda, 0x10, 0xfe, 0xf7, 0xe2, 0xfc, 0x0a,
  0x07, 0xed, 0xf3, 0xd3, 0x19, 0xe9, 0x0a, 0xf8, 0x42, 0xf4, 0xe1, 0x23,
  0xf6, 0x0a, 0xd2, 0xff, 0x97, 0x20, 0xd6, 0xe2, 0x04, 0x08, 0x19, 0x2a,
  0xf7, 0xf1, 0x29, 0xdd, 0xdb, 0x18, 0x05, 0x23, 0x1c, 0x13, 0x32, 0xda,
  0xea, 0xe5, 0x11, 0x7c, 0x32, 0xe8, 0xe8, 0xa2, 0xfd, 0xf9, 0xb4, 0xb5,
  0xcb, 0x06, 0x1e, 0x10, 0xf3, 0xf4, 0x42, 0xd0, 0xcd, 0x69, 0x07, 0x36,
  0x33, 0x39, 0x01, 0xe9, 0x0c, 0xfd, 0x26, 0xf1, 0x33, 0xf7, 0x3b, 0xef,
  0x0b, 0x31, 0x7f, 0x0e, 0x24, 0xea, 0x13, 0x18, 0xf6, 0xd1, 0x5e, 0x07,
  0x0d, 0xe8, 0xda, 0x26, 0xdf, 0x1d, 0xcc, 0x0d, 0x81, 0xeb, 0xc9, 0xf5,
  0x35, 0xd8, 0x11, 0x06, 0x06, 0xf6, 0x0f, 0x0e, 0xea, 0xd1, 0xd8, 0x03,
  0x33, 0x38, 0xd9, 0xcb, 0x20, 0x15, 0xf6, 0x0f, 0x3f, 0xe8, 0x03, 0x07,
  0xfc, 0x24, 0x23, 0xcd, 0xe8, 0xca, 0x08, 0x04, 0x0e, 0x20, 0x28, 0xbc,
  0x01, 0xe5, 0x16, 0x03, 0xcf, 0x22, 0x0c, 0xf8, 0xec, 0xe8, 0xcb, 0xff,
  0x01, 0xc2, 0x22, 0x0a, 0xf8, 0xe8, 0xf8, 0x0b, 0xee, 0xf5, 0xdf, 0xf3,
  0x09, 0x1a, 0x0d, 0x1d, 0x13, 0xfb, 0xea, 0xf8, 0x26, 0xf6, 0x08, 0xed,
  0x3e, 0x36, 0x22, 0xd6, 0xc3, 0x02, 0x51, 0x16, 0x06, 0xec, 0x14, 0x14,
  0x19, 0xfd, 0x22, 0xd9, 0x06, 0xd0, 0xee, 0x2b, 0xcb, 0x41, 0xd9, 0xe2,
  0x1e, 0xff, 0x24, 0x13, 0xd9, 0xf9, 0xec, 0x44, 0xee, 0xe4, 0x02, 0xff,
  0x09, 0xf5, 0xf5, 0x00, 0x01, 0xf6, 0xc7, 0x05, 0x7f, 0x29, 0xfd, 0x1f,
  0xee, 0x11, 0x10, 0xfc, 0x34, 0xfd, 0x54, 0x15, 0x23, 0x31, 0x26, 0xfc,
  0x0d, 0x04, 0xf9, 0x38, 0x24, 0x0a, 0x42, 0xdd, 0xe4, 0x29, 0x1e, 0x18,
  0x03, 0xfa, 0xf3, 0xec, 0x12, 0xdc, 0x00, 0x02, 0xd8, 0x20, 0x21, 0xf2,
  0xee, 0xed, 0xe7, 0x14, 0xf4, 0xff, 0xd8, 0xdb, 0xf3, 0x0a, 0xce, 0xeb,
  0x98, 0x08, 0x15, 0x17, 0x16, 0x0d, 0x0e, 0xd9, 0x26, 0xd4, 0x31, 0x15,
  0xfb, 0x0a, 0x1b, 0xf4, 0xed, 0xcf, 0xfe, 0xd4, 0xfc, 0x0c, 0xdf, 0x33,
  0x0f, 0x05, 0xe8, 0xf2, 0xbd, 0x0b, 0x15, 0x57, 0xc0, 0x24, 0xe8, 0x1f,
  0xa9, 0xfb, 0xe5, 0xf9, 0xe2, 0xf3, 0xf5, 0xdb, 0xfd, 0xc7, 0x16, 0xd1,
  0xbf, 0xa7, 0xfe, 0xe1, 0x0f, 0x15, 0xf2, 0xfb, 0x06, 0x0d, 0x09, 0xd5,
  0xc9, 0xdd, 0xd1, 0x09, 0xe7, 0xe8, 0xcc, 0xe6, 0x1a, 0xfb, 0xdd, 0xf9,
  0xee, 0x03, 0xfa, 0xd3, 0x7f, 0xfd, 0xfb, 0xef, 0x0b, 0xe8, 0xf6, 0x00,
  0x02, 0xe5, 0xbb, 0xfe, 0xf6, 0x39, 0x1b, 0xe8, 0xf2, 0x0f, 0xe4, 0xf6,
  0xe4, 0xdc, 0xe9, 0xe1, 0x45, 0xfe, 0x12, 0x1e, 0x23, 0xe1, 0xff, 0x1e,
  0x7a, 0x24, 0x0c, 0x7f, 0x31, 0x0d, 0xd3, 0xea, 0xeb, 0x22, 0x0f, 0x3d,
  0xcf, 0x05, 0xfe, 0x2d, 0x19, 0xef, 0x1c, 0x24, 0xf2, 0x47, 0x15, 0x1d,
  0x15, 0xee, 0x4d, 0x0f, 0x09, 0xbe, 0x15, 0xea, 0xf4, 0x03, 0x1d, 0x21,
  0x08, 0x42, 0x06, 0xd5, 0xef, 0x20, 0x19, 0xec, 0x05, 0x05, 0xe9, 0x45,
  0xbc, 0xee, 0xed, 0xc0, 0xf1, 0x40, 0x16, 0x09, 0xe5, 0x10, 0xff, 0x02,
  0x24, 0xfd, 0xe2, 0xed, 0xd8, 0x04, 0x5b, 0x42, 0xd1, 0x63, 0x12, 0xd3,
  0x16, 0x25, 0x1f, 0x30, 0x38, 0xf2, 0xe0, 0x36, 0xec, 0xef, 0xaa, 0x5f,
  0xf8, 0xe8, 0x53, 0x0c, 0x1b, 0x01, 0x19, 0xfd, 0xfe, 0x17, 0x2c, 0x0f,
  0x1a, 0xe7, 0xfd, 0xfb, 0x63, 0xec, 0xc9, 0x19, 0x7c, 0x27, 0xd2, 0x14,
  0x3b, 0xf8, 0x48, 0xdb, 0x07, 0x19, 0x0c, 0x00, 0xfb, 0xce, 0xee, 0x2e,
  0xc9, 0x3c, 0x1c, 0x1b, 0x1d, 0xdd, 0x0f, 0x1b, 0x34, 0x0e, 0xe1, 0x1a,
  0x30, 0x23, 0x40, 0x58, 0x03, 0xfb, 0xe4, 0xdd, 0xfe, 0x20, 0xc7, 0x17,
  0xd0, 0x09, 0xd7, 0x24, 0x51, 0xd4, 0xf6, 0x08, 0xf4, 0xe6, 0x53, 0xdd,
  0xeb, 0x2d, 0x3a, 0x0e, 0x17, 0x1e, 0xf4, 0xed, 0xf3, 0x2c, 0xf6, 0x2c,
  0x01, 0x29, 0xf1, 0x19, 0x3a, 0x04, 0xeb, 0xf5, 0x27, 0xec, 0x12, 0x68,
  0x53, 0xf2, 0x42, 0x34, 0x00, 0x0e, 0x4b, 0x05, 0xf2, 0x02, 0xe1, 0xe9,
  0x27, 0x04, 0x3b, 0x3f, 0x17, 0xd8, 0x1e, 0x5e, 0x2e, 0x76, 0xde, 0xe3,
  0x55, 0xfd, 0x32, 0x02, 0x3f, 0x13, 0x2b, 0x7f, 0xf0, 0x0d, 0xaa, 0x18,
  0xdc, 0xeb, 0x2d, 0x2e, 0x1c, 0x13, 0x13, 0x20, 0x1f, 0xdf, 0x35, 0x25,
  0x11, 0x1f, 0x2d, 0x2e, 0xd9, 0x21, 0x2a, 0x15, 0x21, 0xd3, 0xef, 0xfa,
  0x1b, 0xec, 0xf9, 0x0c, 0xfb, 0x0b, 0x48, 0xfb, 0x3e, 0x2e, 0x0a, 0xea,
  0x09, 0x0a, 0x0c, 0x12, 0x3e, 0xfd, 0x15, 0xc5, 0xfe, 0xfb, 0x04, 0x23,
  0xfd, 0xd8, 0xef, 0x06, 0x1d, 0xee, 0x02, 0x35, 0xf4, 0xfd, 0x0e, 0x18,
  0xd3, 0x05, 0x07, 0xfb, 0xe7, 0x03, 0xee, 0x04, 0xf7, 0xf8, 0xe1, 0x0b,
  0xf0, 0x03, 0xf1, 0x14, 0x04, 0xfe, 0x06, 0xfc, 0x0b, 0x16, 0xfd, 0x19,
  0x17, 0x1a, 0x08, 0xf2, 0x23, 0x0a, 0x05, 0x81, 0xfc, 0x0f, 0x1f, 0x1f,
  0xbf, 0x0f, 0xe0, 0xed, 0x05, 0x09, 0x13, 0xf6, 0xfe, 0xf0, 0x20, 0xf5,
  0x17, 0xce, 0xf7, 0xef, 0xe9, 0x16, 0x19, 0x00, 0xd7, 0xf1, 0xfb, 0xf5,
  0xde, 0x16, 0xfd, 0x5a, 0xeb, 0x13, 0xc7, 0x03, 0xe7, 0x0e, 0xe3, 0xf5,
  0x13, 0xf7, 0xf9, 0xf9, 0x00, 0xf7, 0xe7, 0xfe, 0xe8, 0x12, 0xe3, 0xf8,
  0xdf, 0xe7, 0x26, 0xf0, 0x0c, 0xfa, 0xfc, 0xf3, 0x0c, 0x01, 0xff, 0x0c,
  0x11, 0x1b, 0xf4, 0x06, 0xf4, 0xdc, 0x1f, 0x2a, 0xf5, 0x16, 0xf6, 0x11,
  0xeb, 0xf0, 0x0b, 0x3c, 0xde, 0x02, 0x25, 0xe2, 0xfe, 0xf9, 0xef, 0xf4,
  0xfb, 0xf8, 0x20, 0x1d, 0x03, 0x00, 0x0e, 0x04, 0xd3, 0x02, 0xeb, 0xff,
  0xfe, 0x0a, 0xe1, 0xea, 0xf9, 0x17, 0x1e, 0x04, 0x01, 0xf6, 0xfd, 0x13,
  0x09, 0x10, 0xf0, 0x1e, 0x05, 0xea, 0xea, 0x0b, 0xf4, 0x06, 0x14, 0xfe,
  0x1a, 0xfa, 0xe7, 0x7f, 0x0d, 0xfa, 0xef, 0xf7, 0x30, 0xf3, 0xf4, 0x16,
  0xef, 0x02, 0xf6, 0xf8, 0xfc, 0xc1, 0xf1, 0xf2, 0x0b, 0x2f, 0x30, 0x02,
  0xea, 0xf1, 0x23, 0x18, 0x14, 0x02, 0xde, 0xf6, 0xea, 0x15, 0x12, 0xe4,
  0x0a, 0x0d, 0x4a, 0x19, 0x08, 0xfb, 0x0a, 0xeb, 0xec, 0xf1, 0x4b, 0x11,
  0xb3, 0xf3, 0x24, 0x09, 0x11, 0x0a, 0xe9, 0x05, 0x09, 0xf8, 0xd8, 0x09,
  0x0f, 0x20, 0x0a, 0xee, 0xf5, 0x10, 0x05, 0xec, 0x03, 0xf9, 0xfb, 0x04,
  0xf2, 0x04, 0xde, 0x1c, 0x09, 0xed, 0xfb, 0xf6, 0x16, 0xdd, 0xfc, 0xfc,
  0xd1, 0x03, 0x7f, 0xd1, 0xf3, 0xfa, 0xf1, 0x04, 0x04, 0x01, 0x00, 0x0b,
  0x0e, 0xfa, 0xfd, 0x06, 0x70, 0x26, 0xff, 0x12, 0xf6, 0xe3, 0x1c, 0x01,
  0x10, 0xc8, 0xdf, 0x26, 0xef, 0x07, 0xf4, 0xf4, 0x09, 0xee, 0x1a, 0xf5,
  0xfa, 0x11, 0xfb, 0xf9, 0x03, 0x2b, 0xdb, 0x17, 0xae, 0xe3, 0x0e, 0x97,
  0xfd, 0xd6, 0x08, 0xd5, 0x0c, 0xe0, 0x97, 0xff, 0xe8, 0x08, 0x0d, 0x17,
  0xf6, 0xb8, 0xbe, 0xfe, 0x1a, 0x39, 0x3f, 0xf6, 0xd6, 0xfe, 0x37, 0xed,
  0xcf, 0x04, 0xe9, 0xf8, 0xc0, 0x08, 0x43, 0x01, 0xa4, 0xee, 0xb7, 0xe3,
  0xec, 0xfb, 0x00, 0x0d, 0x28, 0x24, 0x30, 0xdc, 0xb7, 0x17, 0x32, 0xf8,
  0xf4, 0x08, 0xda, 0xf3, 0xe8, 0x0d, 0x02, 0xdc, 0x08, 0xdc, 0x11, 0x19,
  0xee, 0xe4, 0xf9, 0x0e, 0xe1, 0x28, 0x38, 0xf2, 0x3e, 0x28, 0x01, 0xc9,
  0x06, 0x08, 0x0b, 0x0e, 0x5f, 0xcf, 0x08, 0xe1, 0x17, 0x21, 0x13, 0xc7,
  0x07, 0xce, 0x23, 0xf3, 0x32, 0xc4, 0x98, 0x4a, 0x30, 0xf2, 0x1c, 0xf7,
  0x53, 0xbc, 0xee, 0xc7, 0xb7, 0x16, 0x55, 0x2f, 0x0d, 0xcc, 0x47, 0x05,
  0xed, 0xff, 0x02, 0xdb, 0x12, 0x1f, 0xf2, 0x1c, 0xe2, 0x0b, 0x2e, 0xbc,
  0xea, 0xd9, 0x3b, 0xe2, 0xf8, 0xfe, 0x1f, 0xe5, 0xfe, 0xec, 0xfb, 0x8c,
  0x26, 0xf1, 0x17, 0xd6, 0xda, 0x0d, 0xf6, 0x18, 0x0f, 0xe8, 0x9e, 0x1f,
  0xdb, 0xcd, 0x7f, 0x12, 0x41, 0xe5, 0x0a, 0xf0, 0x23, 0xf1, 0xfe, 0x04,
  0xf9, 0xc9, 0xfc, 0xd5, 0xfb, 0x05, 0xe0, 0x10, 0xdb, 0xf2, 0xee, 0x04,
  0xee, 0xc6, 0x17, 0x0b, 0xf1, 0xdd, 0xcf, 0xb0, 0xf0, 0xef, 0xdd, 0x02,
  0xef, 0xfd, 0xb9, 0xf4, 0xbe, 0xa9, 0xf8, 0x14, 0xe9, 0xef, 0xdc, 0x20,
  0x2a, 0xf1, 0xc9, 0xc9, 0x05, 0x08, 0xf2, 0xe2, 0x01, 0x01, 0xec, 0xf1,
  0x10, 0x01, 0x0a, 0x81, 0xed, 0x10, 0xdc, 0xcf, 0x08, 0x14, 0x01, 0xfc,
  0x0c, 0xe1, 0xec, 0xe3, 0xef, 0x05, 0xf8, 0xda, 0xef, 0xcd, 0xfe, 0xda,
  0xf5, 0x11, 0xdd, 0x0f, 0xfb, 0x26, 0xe6, 0x07, 0xfe, 0xeb, 0xff, 0xd8,
  0x01, 0xe2, 0xd9, 0x18, 0xfc, 0xd4, 0xe8, 0x05, 0x03, 0xf7, 0x10, 0xe7,
  0xd8, 0x02, 0x07, 0x0d, 0xed, 0x19, 0x13, 0xc9, 0x1e, 0x05, 0x0f, 0x0a,
  0xf7, 0xf8, 0xf4, 0xfb, 0xfc, 0x4a, 0xbe, 0xce, 0x07, 0xab, 0xd6, 0xfe,
  0xd3, 0xbb, 0xdb, 0x0d, 0xd2, 0xf5, 0xf1, 0x09, 0xec, 0xf5, 0x20, 0xc0,
  0x29, 0xe0, 0xe9, 0x0e, 0xe5, 0xfb, 0x11, 0xf5, 0x08, 0xff, 0xbf, 0x07,
  0x04, 0x0f, 0x01, 0xf7, 0x0f, 0x01, 0xf6, 0x05, 0x1f, 0xf9, 0xcb, 0x09,
  0xf7, 0xf8, 0xcb, 0xfa, 0x11, 0xf0, 0xf6, 0xe2, 0x09, 0x1a, 0x1e, 0xf8,
  0x67, 0xca, 0x39, 0xe9, 0x2e, 0x2c, 0xd4, 0xcb, 0xab, 0x33, 0xe5, 0x02,
  0xdd, 0xe1, 0x86, 0xed, 0xed, 0x29, 0xfb, 0xe8, 0x04, 0x41, 0x0d, 0xe1,
  0xfd, 0x1f, 0xec, 0x58, 0x42, 0xf5, 0xbf, 0xde, 0xf9, 0x06, 0x9d, 0xec,
  0xfa, 0x3d, 0x50, 0x03, 0xdc, 0x2c, 0xfa, 0x02, 0xfd, 0x42, 0x12, 0xbf,
  0x18, 0xc8, 0xf1, 0xfa, 0x0a, 0x3f, 0x05, 0xf0, 0x13, 0xf5, 0x1a, 0x81,
  0x01, 0x06, 0xb8, 0xd1, 0xc1, 0x0b, 0xe9, 0xd6, 0x42, 0x03, 0x07, 0xd9,
  0x1a, 0xee, 0xbc, 0xdd, 0xfa, 0x17, 0x3b, 0xd6, 0x1c, 0x3c, 0xb7, 0x37,
  0xf4, 0x25, 0x24, 0x10, 0x2c, 0x44, 0xd5, 0xd8, 0xd0, 0xde, 0x0e, 0x0b,
  0x09, 0x0c, 0xe6, 0x14, 0xd4, 0x16, 0x0f, 0x6d, 0x81, 0xf4, 0x46, 0x7b,
  0x25, 0x14, 0x0e, 0x25, 0xa6, 0x18, 0xe7, 0x2c, 0x07, 0xfa, 0x31, 0xbf,
  0xd6, 0xf1, 0x21, 0x13, 0xeb, 0x2d, 0x6d, 0x20, 0x91, 0x23, 0x0d, 0x15,
  0x14, 0x00, 0x01, 0xe7, 0xeb, 0x0e, 0x17, 0xd6, 0x08, 0x10, 0xef, 0x29,
  0xfd, 0x14, 0x1c, 0xe1, 0xed, 0xdd, 0x00, 0xa5, 0xf7, 0xeb, 0x00, 0x11,
  0xe3, 0xe8, 0xf4, 0xf9, 0x06, 0x06, 0x18, 0xfc, 0xc0, 0x11, 0x08, 0xea,
  0x03, 0x03, 0x0b, 0x0b, 0xfa, 0xef, 0xef, 0xf9, 0x08, 0x09, 0xf9, 0xf1,
  0xe5, 0xd5, 0x0c, 0xef, 0x04, 0xf2, 0xea, 0xe0, 0xc2, 0x11, 0xea, 0xf9,
  0xe0, 0xf3, 0x66, 0x05, 0xcd, 0x0a, 0x10, 0xed, 0x02, 0x15, 0xe0, 0xd8,
  0xeb, 0xc0, 0xd1, 0x10, 0xfb, 0xed, 0xf8, 0x08, 0x23, 0x0a, 0x1e, 0xfb,
  0xf2, 0xfe, 0xeb, 0xa6, 0x10, 0x09, 0x33, 0x0c, 0x10, 0x15, 0x03, 0x0f,
  0xff, 0xdc, 0xf9, 0xf0, 0x81, 0xf0, 0xce, 0xdd, 0xe9, 0x06, 0xf8, 0x1a,
  0x3d, 0xfa, 0x43, 0xfa, 0x2e, 0x00, 0xfb, 0xfd, 0xeb, 0x0a, 0x13, 0x23,
  0xe2, 0xd4, 0xce, 0x11, 0x4a, 0xf8, 0xff, 0xff, 0x04, 0x00, 0x00, 0x00,
  0x00, 0x01, 0x00, 0x00, 0xb8, 0xfb, 0xff, 0xff, 0x51, 0x18, 0x00, 0x00,
  0x5c, 0x15, 0x00, 0x00, 0xb5, 0x4a, 0x00, 0x00, 0xdf, 0x3e, 0x00, 0x00,
  0x3c, 0x05, 0x00, 0x00, 0x63, 0x09, 0x00, 0x00, 0xd2, 0x29, 0x00, 0x00,
  0x5f, 0x29, 0x00, 0x00, 0x1c, 0xd6, 0xff, 0xff, 0x27, 0x41, 0x00, 0x00,
  0xf8, 0x34, 0x00, 0x00, 0x25, 0x1f, 0x00, 0x00, 0x39, 0xd1, 0xff, 0xff,
  0xc5, 0xe6, 0xff, 0xff, 0x46, 0x2f, 0x00, 0x00, 0x83, 0x26, 0x00, 0x00,
  0x97, 0x3c, 0x00, 0x00, 0x62, 0xc5, 0xff, 0xff, 0xdf, 0x23, 0x00, 0x00,
  0x8f, 0x57, 0x00, 0x00, 0x7f, 0x32, 0x00, 0x00, 0x5c, 0x33, 0x00, 0x00,
  0x28, 0xed, 0xff, 0xff, 0x52, 0xff, 0xff, 0xff, 0x23, 0x0a, 0x00, 0x00,
  0x2c, 0x34, 0x00, 0x00, 0x2c, 0xf1, 0xff, 0xff, 0x75, 0xf5, 0xff, 0xff,
  0x7f, 0x4e, 0x00, 0x00, 0x7c, 0x1f, 0x00, 0x00, 0x07, 0xd4, 0xff, 0xff,
  0x04, 0x54, 0x00, 0x00, 0x1d, 0x07, 0x00, 0x00, 0x63, 0x3a, 0x00, 0x00,
  0x05, 0x24, 0x00, 0x00, 0xd0, 0x27, 0x00, 0x00, 0x5a, 0xe5, 0xff, 0xff,
  0x42, 0x25, 0x00, 0x00, 0xd4, 0xec, 0xff, 0xff, 0x35, 0x33, 0x00, 0x00,
  0x78, 0xf9, 0xff, 0xff, 0x8c, 0xe4, 0xff, 0xff, 0xaf, 0x0b, 0x00, 0x00,
  0x11, 0x0e, 0x00, 0x00, 0xa3, 0x4e, 0x00, 0x00, 0xbf, 0x0b, 0x00, 0x00,
  0x04, 0x3b, 0x00, 0x00, 0xa8, 0xfd, 0xff, 0xff, 0x19, 0xbc, 0xff, 0xff,
  0xd8, 0x28, 0x00, 0x00, 0xd0, 0x20, 0x00, 0x00, 0x45, 0x02, 0x00, 0x00,
  0x51, 0xee, 0xff, 0xff, 0x60, 0x41, 0x00, 0x00, 0xb0, 0xa5, 0xff, 0xff,
  0x3f, 0x96, 0xff, 0xff, 0xee, 0xfc, 0xff, 0xff, 0xad, 0xf2, 0xff, 0xff,
  0x8b, 0x1a, 0x00, 0x00, 0x76, 0x40, 0x00, 0x00, 0x0d, 0x45, 0x00, 0x00,
  0xf4, 0xea, 0xff, 0xff, 0x53, 0x24, 0x00, 0x00, 0x56, 0xf9, 0xff, 0xff,
  0x04, 0x00, 0x00, 0x00, 0x80, 0x05, 0x00, 0x00, 0x19, 0xa9, 0x31, 0xd3,
  0xe3, 0xf5, 0xcd, 0x06, 0x7f, 0x34, 0xc9, 0xd0, 0xeb, 0xde, 0xb7, 0xda,
  0xbd, 0x51, 0xaf, 0xb4, 0xac, 0x8c, 0x0e, 0xb6, 0x46, 0xd5, 0xc4, 0x52,
  0xad, 0xcf, 0xcd, 0x1b, 0x00, 0xe7, 0xed, 0xc1, 0x48, 0x13, 0x3a, 0xdf,
  0x1e, 0xc3, 0x0f, 0xc3, 0x32, 0xc9, 0xea, 0xf4, 0x74, 0x3c, 0x1a, 0xea,
  0xd6, 0xb6, 0xe9, 0x23, 0xfd, 0xea, 0xda, 0xcc, 0x29, 0x56, 0xe1, 0x47,
  0xcd, 0x5d, 0x04, 0x23, 0xb7, 0xca, 0xbe, 0xe4, 0xb4, 0x07, 0xe7, 0xf8,
  0x20, 0xb6, 0xd6, 0x6e, 0xcd, 0x6c, 0x6c, 0x55, 0x6a, 0x64, 0x92, 0xc5,
  0x9c, 0x65, 0xbe, 0xa1, 0x51, 0x28, 0xbf, 0xc9, 0xe7, 0xe1, 0x15, 0x24,
  0x38, 0xdf, 0xe0, 0x24, 0x44, 0xee, 0xc2, 0x09, 0x6c, 0x81, 0xe3, 0xbe,
  0xa8, 0xdc, 0x7f, 0x10, 0xe2, 0xd3, 0xcb, 0xed, 0xe1, 0xd6, 0xed, 0xca,
  0x5c, 0x45, 0x1d, 0xae, 0x5c, 0xd7, 0xf7, 0x4d, 0x14, 0xd5, 0x3d, 0xf0,
  0xf6, 0xca, 0xd2, 0x1c, 0xdb, 0xe0, 0xeb, 0x22, 0x20, 0xf5, 0xf1, 0x9e,
  0xeb, 0xf3, 0x81, 0xcd, 0xfa, 0xe6, 0x3c, 0xa0, 0xb2, 0x23, 0x36, 0xbe,
  0x42, 0xcf, 0x96, 0x38, 0xdb, 0xf8, 0xe1, 0xe6, 0xd1, 0xe6, 0xea, 0xd6,
  0xf6, 0x4b, 0x4b, 0xfa, 0xdc, 0xed, 0x3b, 0xb7, 0xae, 0xb4, 0x28, 0xc6,
  0x02, 0xf7, 0xc5, 0x50, 0xe1, 0xbc, 0xba, 0xa4, 0x88, 0x3e, 0x74, 0xcd,
  0xa9, 0x53, 0x8a, 0xb7, 0xe8, 0xa7, 0xc5, 0xc8, 0x70, 0x3a, 0x7d, 0x98,
  0xea, 0xde, 0x10, 0xee, 0xbc, 0xee, 0xbf, 0x45, 0xf3, 0xf0, 0xe1, 0xfe,
  0xd5, 0x6a, 0x1d, 0xac, 0x0a, 0x9a, 0x25, 0x09, 0x6b, 0xfa, 0xdf, 0xa1,
  0x38, 0xf7, 0xab, 0x91, 0x47, 0xde, 0xed, 0x4c, 0x18, 0x04, 0xdf, 0x55,
  0x67, 0xba, 0xe8, 0x7b, 0xbe, 0x9e, 0x40, 0x57, 0x14, 0x81, 0x38, 0xe6,
  0x16, 0x08, 0x01, 0xd2, 0x39, 0x44, 0x25, 0x07, 0x6f, 0x21, 0xb7, 0x74,
  0x66, 0xd6, 0x38, 0xae, 0x3c, 0xc3, 0x34, 0x23, 0xc4, 0x18, 0x33, 0x5b,
  0xe0, 0xdb, 0x02, 0x14, 0xeb, 0xa4, 0x15, 0xb4, 0xa4, 0xee, 0xd5, 0xf8,
  0xec, 0x4f, 0x27, 0xc1, 0xaf, 0xd9, 0xf6, 0x1e, 0x05, 0x25, 0xf0, 0xfb,
  0x77, 0xd1, 0xf9, 0xcd, 0xd8, 0x60, 0x09, 0xcf, 0xd2, 0x2b, 0xbb, 0x7f,
  0x97, 0xb9, 0x9f, 0xc8, 0xda, 0x78, 0xcc, 0x59, 0xab, 0x18, 0x05, 0x0a,
  0xe0, 0x99, 0x44, 0x38, 0xf8, 0x21, 0x42, 0x9c, 0xef, 0xfa, 0xd3, 0x39,
  0xc9, 0x4b, 0xde, 0x66, 0x2b, 0x54, 0xf7, 0x33, 0xec, 0x4c, 0x75, 0x09,
  0xe2, 0xd8, 0x33, 0x09, 0x2f, 0xe5, 0x36, 0x59, 0x5a, 0x7f, 0x59, 0x15,
  0x49, 0x23, 0x41, 0x59, 0x19, 0x08, 0xef, 0xad, 0x44, 0xb9, 0xd5, 0x02,
  0x3f, 0xd9, 0x15, 0x90, 0x64, 0x8d, 0xe6, 0x16, 0xc6, 0x77, 0x61, 0x91,
  0xea, 0xe4, 0xeb, 0xd2, 0xdc, 0x4b, 0xb1, 0xeb, 0xf9, 0xd2, 0xb7, 0xb9,
  0x95, 0xea, 0x3d, 0x9e, 0x03, 0xb7, 0x9a, 0xd9, 0xb1, 0x44, 0x9b, 0x55,
  0xf6, 0xa1, 0x18, 0xbd, 0x86, 0x38, 0x6d, 0x5b, 0xf3, 0xed, 0xe0, 0x79,
  0x53, 0x91, 0x21, 0x67, 0xd0, 0xbd, 0x5b, 0x7f, 0xb6, 0xd1, 0x0a, 0xd6,
  0xb7, 0x57, 0x63, 0x57, 0x2c, 0x45, 0x22, 0xf9, 0xcc, 0xba, 0x07, 0xed,
  0xac, 0xce, 0x23, 0xfe, 0xb9, 0xc4, 0xd1, 0xcd, 0x35, 0xcd, 0x07, 0xde,
  0x62, 0xe0, 0x2c, 0xd9, 0x11, 0x1d, 0xd3, 0x28, 0xdf, 0x91, 0xaf, 0xa8,
  0x10, 0xa9, 0x71, 0xef, 0x31, 0x8f, 0x32, 0x4f, 0x41, 0xae, 0x05, 0xdf,
  0x64, 0x29, 0xc0, 0xbd, 0xe5, 0x97, 0x0f, 0xf5, 0x4e, 0xd6, 0xef, 0xa2,
  0x05, 0x4a, 0x54, 0xfa, 0xbb, 0x2b, 0x9d, 0x60, 0x10, 0x16, 0x07, 0xa1,
  0xc6, 0x81, 0x6c, 0xdf, 0xec, 0x0a, 0x2a, 0x65, 0x33, 0xd7, 0xa3, 0x72,
  0xd2, 0xe4, 0x11, 0xb5, 0xe7, 0x07, 0xbe, 0xb5, 0x97, 0x5a, 0xcc, 0x67,
  0x00, 0x68, 0x66, 0xbe, 0x2b, 0x16, 0x8b, 0xb1, 0x8d, 0xf6, 0x05, 0xcd,
  0xd7, 0xdc, 0xa5, 0x1f, 0xcb, 0xc5, 0xc6, 0x0a, 0x35, 0xa3, 0xc4, 0xd9,
  0x02, 0x29, 0xf4, 0x54, 0xcb, 0xc5, 0x81, 0xdd, 0x15, 0x13, 0xd0, 0xf1,
  0xbd, 0xdc, 0xaa, 0x04, 0x0b, 0x03, 0x25, 0x38, 0x13, 0x3a, 0x2e, 0xee,
  0xb9, 0x64, 0x2c, 0xd2, 0xbf, 0xd1, 0x45, 0x12, 0x0d, 0x3d, 0x69, 0x31,
  0x0b, 0xce, 0xf7, 0x4c, 0x17, 0x9a, 0x06, 0x2d, 0x3d, 0xc9, 0xcb, 0xdc,
  0x17, 0x49, 0xa1, 0x11, 0x81, 0xe7, 0x1f, 0xec, 0x37, 0xbd, 0x56, 0xa3,
  0x0a, 0xd1, 0x62, 0xa8, 0x10, 0x82, 0x6d, 0x14, 0xe0, 0x50, 0x54, 0xec,
  0x9e, 0x16, 0xf7, 0x26, 0xb6, 0x32, 0x60, 0xe8, 0xcd, 0xbb, 0x0b, 0xf9,
  0x1d, 0xbe, 0xcc, 0x4e, 0x93, 0xae, 0x26, 0x07, 0x90, 0x3b, 0x99, 0xae,
  0xe6, 0x1c, 0x07, 0xd6, 0xb7, 0xdb, 0xe7, 0x99, 0x8e, 0x13, 0xb6, 0x19,
  0xa6, 0xca, 0xd5, 0xfb, 0xd2, 0x35, 0xaf, 0x5e, 0x57, 0xdc, 0xf1, 0xf1,
  0xb4, 0x08, 0xeb, 0xd6, 0xd2, 0xb3, 0xbc, 0xbf, 0xb2, 0x92, 0x46, 0x93,
  0xf2, 0xc5, 0x4b, 0x5e, 0xae, 0xe9, 0x4a, 0x53, 0xfc, 0xb0, 0x4c, 0x50,
  0x49, 0x81, 0x24, 0x06, 0xe0, 0x7f, 0xbf, 0x39, 0xd8, 0x13, 0xec, 0x00,
  0xfb, 0x27, 0x31, 0x7f, 0xe4, 0xc2, 0xf3, 0xbe, 0x03, 0xd3, 0xaf, 0xc3,
  0xf8, 0xc7, 0x03, 0xca, 0xab, 0xf8, 0x98, 0x35, 0x0a, 0x3a, 0x61, 0xf0,
  0x42, 0xe5, 0x44, 0xcd, 0x15, 0xf5, 0x66, 0xb2, 0x38, 0xb9, 0x15, 0x19,
  0xbc, 0xae, 0x66, 0x78, 0xf0, 0xdd, 0xa9, 0x3d, 0xb4, 0x24, 0x7a, 0x0d,
  0x06, 0x41, 0xbe, 0xd9, 0x5b, 0x28, 0xd2, 0xc5, 0xf9, 0x0a, 0xab, 0xc1,
  0xde, 0x18, 0x8e, 0x24, 0x23, 0xe3, 0x60, 0x0b, 0xd3, 0x24, 0xd4, 0xfd,
  0x57, 0xfc, 0xdb, 0x81, 0xc9, 0x5a, 0xf0, 0x37, 0x0d, 0x20, 0x2e, 0xc5,
  0x4a, 0x5e, 0xb8, 0xf7, 0xe9, 0x57, 0xbc, 0xe0, 0x61, 0x47, 0x05, 0xff,
  0x4d, 0x42, 0xbf, 0x4a, 0xc3, 0x8e, 0xed, 0x29, 0x4f, 0xce, 0x92, 0x35,
  0xcd, 0xd7, 0xae, 0xb7, 0x09, 0xa0, 0x51, 0x0a, 0xe2, 0x75, 0x38, 0x01,
  0x58, 0xb8, 0xba, 0x88, 0x99, 0x0c, 0xde, 0x11, 0xcb, 0x37, 0xd0, 0x07,
  0xc3, 0x4a, 0x2f, 0xa2, 0x37, 0x9f, 0x00, 0xdb, 0xd5, 0xce, 0x3e, 0xb6,
  0x32, 0xd5, 0x81, 0xde, 0x5e, 0xf1, 0xf1, 0xc8, 0x77, 0x18, 0xb3, 0xeb,
  0xe3, 0xbc, 0x09, 0xf2, 0xaf, 0x44, 0x43, 0x19, 0x01, 0x86, 0x72, 0xf3,
  0xbc, 0x09, 0xb1, 0x4e, 0x39, 0x91, 0xa1, 0xe7, 0x26, 0xee, 0x52, 0x47,
  0xb2, 0x96, 0x13, 0xce, 0x44, 0x11, 0xd7, 0xbb, 0x1c, 0xaf, 0xdb, 0x0d,
  0x06, 0x41, 0xcc, 0x44, 0xa5, 0xe0, 0xe8, 0xbd, 0xcb, 0x29, 0x3c, 0xc1,
  0xcc, 0x1c, 0xb5, 0xba, 0xce, 0xa5, 0x36, 0x45, 0x9f, 0x00, 0x89, 0x4b,
  0x79, 0xb3, 0xab, 0xea, 0xf9, 0xb8, 0xb2, 0x6c, 0xf9, 0x5b, 0xa1, 0x7f,
  0xcb, 0x38, 0x8b, 0xb0, 0x0e, 0xd9, 0x92, 0x30, 0x16, 0xdc, 0x21, 0x35,
  0xae, 0x0d, 0x3f, 0xd4, 0xdb, 0xbd, 0xdc, 0xc5, 0xd5, 0xe8, 0xfc, 0xb8,
  0x1d, 0xb4, 0xbb, 0xa8, 0xb6, 0x7d, 0xf1, 0x85, 0x36, 0xd2, 0xdf, 0x9f,
  0xa3, 0x28, 0x0e, 0xc6, 0xed, 0xc9, 0x0b, 0xc0, 0x26, 0x78, 0x72, 0xac,
  0x4f, 0xbc, 0x56, 0x2f, 0x9d, 0xc0, 0x8c, 0xfb, 0xeb, 0xe0, 0xe1, 0xd9,
  0xd6, 0x38, 0x68, 0xe6, 0xc3, 0xd2, 0xcb, 0xa5, 0x67, 0xc9, 0xd1, 0xbd,
  0x23, 0x1d, 0x24, 0x7f, 0xf2, 0x0b, 0xec, 0xd4, 0xb6, 0x96, 0x44, 0x5a,
  0xe2, 0x25, 0x17, 0xa7, 0x26, 0xdf, 0x67, 0x4a, 0xb2, 0x06, 0x50, 0x68,
  0x90, 0x12, 0xbf, 0xf0, 0x48, 0x08, 0x79, 0xa8, 0x8f, 0x81, 0x44, 0xf0,
  0xa3, 0xd5, 0xee, 0x6f, 0xa8, 0xc1, 0x0d, 0x53, 0xa7, 0x48, 0x2a, 0xc5,
  0xe1, 0x24, 0x08, 0x4a, 0xa6, 0x50, 0xd8, 0xe1, 0xe8, 0xaf, 0xa7, 0xe2,
  0xd8, 0xca, 0x04, 0xc4, 0xfc, 0x7d, 0xb0, 0x3e, 0x41, 0xca, 0xdd, 0x4a,
  0xd6, 0xc2, 0x0a, 0xc0, 0x4a, 0xdf, 0xa9, 0x9e, 0x3a, 0xbc, 0xa7, 0x4d,
  0x7f, 0x99, 0xc1, 0x14, 0x66, 0xea, 0x58, 0x52, 0xb7, 0x6a, 0x1f, 0x1e,
  0x32, 0xb0, 0x0e, 0x03, 0xb9, 0x46, 0x4f, 0x4f, 0xd3, 0xd8, 0x24, 0x20,
  0x03, 0xd8, 0xc5, 0x56, 0x9b, 0x33, 0xe7, 0x9b, 0xb2, 0x12, 0x9a, 0x11,
  0xdf, 0x14, 0x11, 0x99, 0xf3, 0xc4, 0x47, 0xa4, 0xa8, 0x3c, 0x24, 0xfc,
  0x13, 0xb3, 0xb8, 0x85, 0xb3, 0x3d, 0x61, 0x60, 0x11, 0xa1, 0xb0, 0x65,
  0xe4, 0x11, 0x3d, 0xa9, 0xb7, 0x00, 0xcb, 0xf9, 0x18, 0x28, 0x22, 0x51,
  0x3e, 0xa4, 0x25, 0x6f, 0x38, 0x7f, 0x16, 0x12, 0xd7, 0xcc, 0xda, 0x99,
  0xdc, 0xb2, 0x40, 0x11, 0xd7, 0x46, 0xc7, 0xec, 0x4d, 0xb9, 0xcb, 0xb6,
  0x0b, 0xae, 0x9f, 0x26, 0xe0, 0xff, 0x39, 0xb2, 0x5f, 0x2b, 0xf3, 0xf9,
  0xcd, 0x36, 0xc4, 0x06, 0xdc, 0x4c, 0x1f, 0x0d, 0xd6, 0x3d, 0x56, 0x96,
  0xc7, 0xbc, 0x06, 0xd5, 0x02, 0xaa, 0x22, 0x3b, 0x7f, 0xdc, 0x1f, 0x6a,
  0x31, 0x1b, 0xdb, 0xd2, 0x31, 0xbc, 0xed, 0xe7, 0xcf, 0x25, 0x13, 0xbd,
  0xf2, 0x06, 0x0b, 0xee, 0xe6, 0xb1, 0xad, 0xf6, 0x04, 0xe8, 0x54, 0xb2,
  0xdf, 0xc7, 0x61, 0x1a, 0xd0, 0xb6, 0xf7, 0xaf, 0xc8, 0x59, 0xdc, 0xc9,
  0xd3, 0xf7, 0xaf, 0x78, 0xd9, 0xf6, 0xb7, 0xe2, 0xae, 0xa8, 0x02, 0x49,
  0x0f, 0xf3, 0xbd, 0x0b, 0x6b, 0xa4, 0xf0, 0x6e, 0xa3, 0xa7, 0x2b, 0x72,
  0xd3, 0xbe, 0x97, 0xcb, 0x83, 0x96, 0x49, 0xdc, 0x8c, 0x0b, 0x5f, 0x39,
  0x9b, 0x0e, 0x40, 0x71, 0x69, 0xeb, 0xdf, 0x2a, 0x81, 0x23, 0x02, 0xeb,
  0x31, 0xe4, 0x8b, 0x52, 0x9e, 0x66, 0xd2, 0x56, 0x5e, 0xa8, 0x99, 0xfa,
  0xbf, 0x30, 0x14, 0x05, 0x27, 0x4e, 0xec, 0x00, 0x27, 0x63, 0xa2, 0x14,
  0x54, 0x22, 0xdc, 0xad, 0x41, 0xca, 0x9c, 0x70, 0xbc, 0xfa, 0x48, 0xfd,
  0x15, 0xaa, 0x99, 0x13, 0xb1, 0xa9, 0x3a, 0x3a, 0xef, 0xa6, 0xd6, 0x9b,
  0x92, 0xb5, 0x9d, 0x9d, 0x75, 0x7f, 0xcb, 0x45, 0xd1, 0x26, 0x44, 0x1a,
  0x2c, 0x04, 0x53, 0xac, 0xf5, 0x3a, 0x77, 0xcc, 0xf4, 0xbb, 0x42, 0x14,
  0xc8, 0xa9, 0x43, 0x52, 0x20, 0x81, 0x8f, 0x55, 0x3f, 0x10, 0x57, 0x44,
  0x1c, 0xda, 0x2f, 0x37, 0xfd, 0xa0, 0xf4, 0xe1, 0xb2, 0xb2, 0x18, 0x5c,
  0xe2, 0xfe, 0xff, 0xff, 0x04, 0x00, 0x00, 0x00, 0x58, 0x00, 0x00, 0x00,
  0x9e, 0x58, 0x00, 0x00, 0x63, 0x21, 0x00, 0x00, 0xcd, 0x89, 0x00, 0x00,
  0xff, 0x1b, 0x00, 0x00, 0x1f, 0x11, 0x00, 0x00, 0x7c, 0x79, 0xff, 0xff,
  0xa7, 0x2b, 0x00, 0x00, 0x71, 0x61, 0x00, 0x00, 0xb4, 0x77, 0x00, 0x00,
  0xa2, 0xe1, 0xff, 0xff, 0x98, 0xb1, 0x00, 0x00, 0x8d, 0x03, 0x00, 0x00,
  0x4c, 0x02, 0x00, 0x00, 0x54, 0x88, 0x00, 0x00, 0x60, 0x7d, 0x00, 0x00,
  0x87, 0x7e, 0x00, 0x00, 0x86, 0x3f, 0x00, 0x00, 0xe7, 0x39, 0x00, 0x00,
  0x24, 0x1a, 0x00, 0x00, 0x7c, 0x6c, 0x00, 0x00, 0x3f, 0x15, 0x00, 0x00,
  0x58, 0x37, 0x00, 0x00, 0x3c, 0xe3, 0xff, 0xff, 0x40, 0xe3, 0xff, 0xff,
  0x0f, 0x00, 0x00, 0x00, 0x4d, 0x4c, 0x49, 0x52, 0x20, 0x43, 0x6f, 0x6e,
  0x76, 0x65, 0x72, 0x74, 0x65, 0x64, 0x2e, 0x00, 0x01, 0x00, 0x00, 0x00,
  0x14, 0x00, 0x00, 0x00, 0x00, 0x00, 0x0e, 0x00, 0x18, 0x00, 0x14, 0x00,
  0x10, 0x00, 0x0c, 0x00, 0x08, 0x00, 0x04, 0x00, 0x0e, 0x00, 0x00, 0x00,
  0x14, 0x00, 0x00, 0x00, 0x1c, 0x00, 0x00, 0x00, 0x7c, 0x01, 0x00, 0x00,
  0x80, 0x01, 0x00, 0x00, 0x84, 0x01, 0x00, 0x00, 0x04, 0x00, 0x00, 0x00,
  0x6d, 0x61, 0x69, 0x6e, 0x00, 0x00, 0x00, 0x00, 0x06, 0x00, 0x00, 0x00,
  0x44, 0x01, 0x00, 0x00, 0xf4, 0x00, 0x00, 0x00, 0xa8, 0x00, 0x00, 0x00,
  0x70, 0x00, 0x00, 0x00, 0x34, 0x00, 0x00, 0x00, 0x10, 0x00, 0x00, 0x00,
  0x00, 0x00, 0x0a, 0x00, 0x10, 0x00, 0x0c, 0x00, 0x08, 0x00, 0x04, 0x00,
  0x0a, 0x00, 0x00, 0x00, 0x0c, 0x00, 0x00, 0x00, 0x10, 0x00, 0x00, 0x00,
  0x03, 0x00, 0x00, 0x00, 0x01, 0x00, 0x00, 0x00, 0x0c, 0x00, 0x00, 0x00,
  0x01, 0x00, 0x00, 0x00, 0x0b, 0x00, 0x00, 0x00, 0x5a, 0xff, 0xff, 0xff,
  0x1c, 0x00, 0x00, 0x00, 0x00, 0x00, 0x00, 0x09, 0x1c, 0x00, 0x00, 0x00,
  0x20, 0x00, 0x00, 0x00, 0x02, 0x00, 0x00, 0x00, 0x00, 0x00, 0x06, 0x00,
  0x08, 0x00, 0x04, 0x00, 0x06, 0x00, 0x00, 0x00, 0x00, 0x00, 0x80, 0x3f,
  0x01, 0x00, 0x00, 0x00, 0x0b, 0x00, 0x00, 0x00, 0x01, 0x00, 0x00, 0x00,
  0x0a, 0x00, 0x00, 0x00, 0x92, 0xff, 0xff, 0xff, 0x14, 0x00, 0x00, 0x00,
  0x00, 0x00, 0x00, 0x08, 0x10, 0x00, 0x00, 0x00, 0x14, 0x00, 0x00, 0x00,
  0x01, 0x00, 0x00, 0x00, 0x2c, 0xe4, 0xff, 0xff, 0x01, 0x00, 0x00, 0x00,
  0x0a, 0x00, 0x00, 0x00, 0x03, 0x00, 0x00, 0x00, 0x09, 0x00, 0x00, 0x00,
  0x02, 0x00, 0x00, 0x00, 0x01, 0x00, 0x00, 0x00, 0xc6, 0xff, 0xff, 0xff,
  0x14, 0x00, 0x00, 0x00, 0x00, 0x00, 0x00, 0x08, 0x14, 0x00, 0x00, 0x00,
  0x18, 0x00, 0x00, 0x00, 0x01, 0x00, 0x00, 0x00, 0xb6, 0xff, 0xff, 0xff,
  0x00, 0x00, 0x00, 0x01, 0x01, 0x00, 0x00, 0x00, 0x09, 0x00, 0x00, 0x00,
  0x03, 0x00, 0x00, 0x00, 0x08, 0x00, 0x00, 0x00, 0x04, 0x00, 0x00, 0x00,
  0x03, 0x00, 0x00, 0x00, 0x00, 0x00, 0x0e, 0x00, 0x1a, 0x00, 0x14, 0x00,
  0x10, 0x00, 0x0c, 0x00, 0x0b, 0x00, 0x04, 0x00, 0x0e, 0x00, 0x00, 0x00,
  0x1c, 0x00, 0x00, 0x00, 0x00, 0x00, 0x00, 0x08, 0x1c, 0x00, 0x00, 0x00,
  0x20, 0x00, 0x00, 0x00, 0x01, 0x00, 0x00, 0x00, 0x00, 0x00, 0x06, 0x00,
  0x08, 0x00, 0x07, 0x00, 0x06, 0x00, 0x00, 0x00, 0x00, 0x00, 0x00, 0x01,
  0x01, 0x00, 0x00, 0x00, 0x08, 0x00, 0x00, 0x00, 0x03, 0x00, 0x00, 0x00,
  0x07, 0x00, 0x00, 0x00, 0x06, 0x00, 0x00, 0x00, 0x05, 0x00, 0x00, 0x00,
  0x00, 0x00, 0x0a, 0x00, 0x0c, 0x00, 0x00, 0x00, 0x08, 0x00, 0x04, 0x00,
  0x0a, 0x00, 0x00, 0x00, 0x08, 0x00, 0x00, 0x00, 0x0c, 0x00, 0x00, 0x00,
  0x01, 0x00, 0x00, 0x00, 0x07, 0x00, 0x00, 0x00, 0x01, 0x00, 0x00, 0x00,
  0x00, 0x00, 0x00, 0x00, 0x01, 0x00, 0x00, 0x00, 0x0c, 0x00, 0x00, 0x00,
  0x01, 0x00, 0x00, 0x00, 0x00, 0x00, 0x00, 0x00, 0x0d, 0x00, 0x00, 0x00,
  0xcc, 0x1a, 0x00, 0x00, 0x4c, 0x19, 0x00, 0x00, 0xd4, 0x17, 0x00, 0x00,
  0x80, 0x14, 0x00, 0x00, 0x24, 0x11, 0x00, 0x00, 0xd0, 0x0a, 0x00, 0x00,
  0x74, 0x04, 0x00, 0x00, 0x00, 0x04, 0x00, 0x00, 0x24, 0x03, 0x00, 0x00,
  0xf8, 0x01, 0x00, 0x00, 0xe4, 0x00, 0x00, 0x00, 0x60, 0x00, 0x00, 0x00,
  0x04, 0x00, 0x00, 0x00, 0x7e, 0xe5, 0xff, 0xff, 0x00, 0x00, 0x00, 0x01,
  0x14, 0x00, 0x00, 0x00, 0x1c, 0x00, 0x00, 0x00, 0x1c, 0x00, 0x00, 0x00,
  0x0d, 0x00, 0x00, 0x00, 0x34, 0x00, 0x00, 0x00, 0x02, 0x00, 0x00, 0x00,
  0xff, 0xff, 0xff, 0xff, 0x16, 0x00, 0x00, 0x00, 0x68, 0xe5, 0xff, 0xff,
  0x1b, 0x00, 0x00, 0x00, 0x53, 0x74, 0x61, 0x74, 0x65, 0x66, 0x75, 0x6c,
  0x50, 0x61, 0x72, 0x74, 0x69, 0x74, 0x69, 0x6f, 0x6e, 0x65, 0x64, 0x43,
  0x61, 0x6c, 0x6c, 0x5f, 0x31, 0x3a, 0x30, 0x00, 0x02, 0x00, 0x00, 0x00,
  0x01, 0x00, 0x00, 0x00, 0x16, 0x00, 0x00, 0x00, 0x86, 0xfc, 0xff, 0xff,
  0x00, 0x00, 0x00, 0x01, 0x18, 0x00, 0x00, 0x00, 0x20, 0x00, 0x00, 0x00,
  0x40, 0x00, 0x00, 0x00, 0x0c, 0x00, 0x00, 0x00, 0x00, 0x00, 0x00, 0x09,
  0x58, 0x00, 0x00, 0x00, 0x02, 0x00, 0x00, 0x00, 0xff, 0xff, 0xff, 0xff,
  0x16, 0x00, 0x00, 0x00, 0x4c, 0xe7, 0xff, 0xff, 0x08, 0x00, 0x00, 0x00,
  0x14, 0x00, 0x00, 0x00, 0x01, 0x00, 0x00, 0x00, 0x80, 0xff, 0xff, 0xff,
  0xff, 0xff, 0xff, 0xff, 0x00, 0x00, 0x00, 0x00, 0x01, 0x00, 0x00, 0x00,
  0x00, 0x00, 0x80, 0x3b, 0x1c, 0x00, 0x00, 0x00, 0x53, 0x74, 0x61, 0x74,
  0x65, 0x66, 0x75, 0x6c, 0x50, 0x61, 0x72, 0x74, 0x69, 0x74, 0x69, 0x6f,
  0x6e, 0x65, 0x64, 0x43, 0x61, 0x6c, 0x6c, 0x5f, 0x31, 0x3a, 0x30, 0x31,
  0x00, 0x00, 0x00, 0x00, 0x02, 0x00, 0x00, 0x00, 0x01, 0x00, 0x00, 0x00,
  0x16, 0x00, 0x00, 0x00, 0x06, 0xfd, 0xff, 0xff, 0x00, 0x00, 0x00, 0x01,
  0x18, 0x00, 0x00, 0x00, 0x20, 0x00, 0x00, 0x00, 0x40, 0x00, 0x00, 0x00,
  0x0b, 0x00, 0x00, 0x00, 0x00, 0x00, 0x00, 0x09, 0xe8, 0x00, 0x00, 0x00,
  0x02, 0x00, 0x00, 0x00, 0xff, 0xff, 0xff, 0xff, 0x16, 0x00, 0x00, 0x00,
  0xcc, 0xe7, 0xff, 0xff, 0x08, 0x00, 0x00, 0x00, 0x14, 0x00, 0x00, 0x00,
  0x01, 0x00, 0x00, 0x00, 0xd6, 0xff, 0xff, 0xff, 0xff, 0xff, 0xff, 0xff,
  0x00, 0x00, 0x00, 0x00, 0x01, 0x00, 0x00, 0x00, 0x4d, 0x25, 0xb9, 0x3d,
  0xac, 0x00, 0x00, 0x00, 0x73, 0x65, 0x71, 0x75, 0x65, 0x6e, 0x74, 0x69,
  0x61, 0x6c, 0x5f, 0x33, 0x5f, 0x31, 0x2f, 0x62, 0x61, 0x74, 0x63, 0x68,
  0x5f, 0x6e, 0x6f, 0x72, 0x6d, 0x61, 0x6c, 0x69, 0x7a, 0x61, 0x74, 0x69,
  0x6f, 0x6e, 0x5f, 0x39, 0x5f, 0x31, 0x2f, 0x62, 0x61, 0x74, 0x63, 0x68,
  0x6e, 0x6f, 0x72, 0x6d, 0x2f, 0x6d, 0x75, 0x6c, 0x5f, 0x31, 0x3b, 0x73,
  0x65, 0x71, 0x75, 0x65, 0x6e, 0x74, 0x69, 0x61, 0x6c, 0x5f, 0x33, 0x5f,
  0x31, 0x2f, 0x62, 0x61, 0x74, 0x63, 0x68, 0x5f, 0x6e, 0x6f, 0x72, 0x6d,
  0x61, 0x6c, 0x69, 0x7a, 0x61, 0x74, 0x69, 0x6f, 0x6e, 0x5f, 0x39, 0x5f,
  0x31, 0x2f, 0x62, 0x61, 0x74, 0x63, 0x68, 0x6e, 0x6f, 0x72, 0x6d, 0x2f,
  0x61, 0x64, 0x64, 0x5f, 0x31, 0x3b, 0x73, 0x65, 0x71, 0x75, 0x65, 0x6e,
  0x74, 0x69, 0x61, 0x6c, 0x5f, 0x33, 0x5f, 0x31, 0x2f, 0x64, 0x65, 0x6e,
  0x73, 0x65, 0x5f, 0x31, 0x33, 0x5f, 0x31, 0x2f, 0x4d, 0x61, 0x74, 0x4d,
  0x75, 0x6c, 0x3b, 0x73, 0x65, 0x71, 0x75, 0x65, 0x6e, 0x74, 0x69, 0x61,
  0x6c, 0x5f, 0x33, 0x5f, 0x31, 0x2f, 0x64, 0x65, 0x6e, 0x73, 0x65, 0x5f,
  0x31, 0x33, 0x5f, 0x31, 0x2f, 0x41, 0x64, 0x64, 0x00, 0x00, 0x00, 0x00,
  0x02, 0x00, 0x00, 0x00, 0x01, 0x00, 0x00, 0x00, 0x16, 0x00, 0x00, 0x00,
  0x16, 0xfe, 0xff, 0xff, 0x00, 0x00, 0x00, 0x01, 0x18, 0x00, 0x00, 0x00,
  0x20, 0x00, 0x00, 0x00, 0x3c, 0x00, 0x00, 0x00, 0x0a, 0x00, 0x00, 0x00,
  0x00, 0x00, 0x00, 0x09, 0x00, 0x01, 0x00, 0x00, 0x02, 0x00, 0x00, 0x00,
  0xff, 0xff, 0xff, 0xff, 0x40, 0x00, 0x00, 0x00, 0xdc, 0xe8, 0xff, 0xff,
  0x08, 0x00, 0x00, 0x00, 0x10, 0x00, 0x00, 0x00, 0x01, 0x00, 0x00, 0x00,
  0x80, 0xff, 0xff, 0xff, 0xff, 0xff, 0xff, 0xff, 0x01, 0x00, 0x00, 0x00,
  0x7f, 0xf8, 0xb2, 0x3c, 0xcb, 0x00, 0x00, 0x00, 0x73, 0x65, 0x71, 0x75,
  0x65, 0x6e, 0x74, 0x69, 0x61, 0x6c, 0x5f, 0x33, 0x5f, 0x31, 0x2f, 0x62,
  0x61, 0x74, 0x63, 0x68, 0x5f, 0x6e, 0x6f, 0x72, 0x6d, 0x61, 0x6c, 0x69,
  0x7a, 0x61, 0x74, 0x69, 0x6f, 0x6e, 0x5f, 0x38, 0x5f, 0x31, 0x2f, 0x62,
  0x61, 0x74, 0x63, 0x68, 0x6e, 0x6f, 0x72, 0x6d, 0x2f, 0x6d, 0x75, 0x6c,
  0x5f, 0x31, 0x3b, 0x73, 0x65, 0x71, 0x75, 0x65, 0x6e, 0x74, 0x69, 0x61,
  0x6c, 0x5f, 0x33, 0x5f, 0x31, 0x2f, 0x62, 0x61, 0x74, 0x63, 0x68, 0x5f,
  0x6e, 0x6f, 0x72, 0x6d, 0x61, 0x6c, 0x69, 0x7a, 0x61, 0x74, 0x69, 0x6f,
  0x6e, 0x5f, 0x38, 0x5f, 0x31, 0x2f, 0x62, 0x61, 0x74, 0x63, 0x68, 0x6e,
  0x6f, 0x72, 0x6d, 0x2f, 0x61, 0x64, 0x64, 0x5f, 0x31, 0x3b, 0x73, 0x65,
  0x71, 0x75, 0x65, 0x6e, 0x74, 0x69, 0x61, 0x6c, 0x5f, 0x33, 0x5f, 0x31,
  0x2f, 0x64, 0x65, 0x6e, 0x73, 0x65, 0x5f, 0x31, 0x32, 0x5f, 0x31, 0x2f,
  0x4d, 0x61, 0x74, 0x4d, 0x75, 0x6c, 0x3b, 0x73, 0x65, 0x71, 0x75, 0x65,
  0x6e, 0x74, 0x69, 0x61, 0x6c, 0x5f, 0x33, 0x5f, 0x31, 0x2f, 0x64, 0x65,
  0x6e, 0x73, 0x65, 0x5f, 0x31, 0x32, 0x5f, 0x31, 0x2f, 0x52, 0x65, 0x6c,
  0x75, 0x3b, 0x73, 0x65, 0x71, 0x75, 0x65, 0x6e, 0x74, 0x69, 0x61, 0x6c,
  0x5f, 0x33, 0x5f, 0x31, 0x2f, 0x64, 0x65, 0x6e, 0x73, 0x65, 0x5f, 0x31,
  0x32, 0x5f, 0x31, 0x2f, 0x41, 0x64, 0x64, 0x00, 0x02, 0x00, 0x00, 0x00,
  0x01, 0x00, 0x00, 0x00, 0x40, 0x00, 0x00, 0x00, 0x3e, 0xff, 0xff, 0xff,
  0x00, 0x00, 0x00, 0x01, 0x18, 0x00, 0x00, 0x00, 0x20, 0x00, 0x00, 0x00,
  0x40, 0x00, 0x00, 0x00, 0x09, 0x00, 0x00, 0x00, 0x00, 0x00, 0x00, 0x09,
  0x98, 0x00, 0x00, 0x00, 0x02, 0x00, 0x00, 0x00, 0xff, 0xff, 0xff, 0xff,
  0x80, 0x00, 0x00, 0x00, 0x04, 0xea, 0xff, 0xff, 0x08, 0x00, 0x00, 0x00,
  0x14, 0x00, 0x00, 0x00, 0x01, 0x00, 0x00, 0x00, 0x80, 0xff, 0xff, 0xff,
  0xff, 0xff, 0xff, 0xff, 0x00, 0x00, 0x00, 0x00, 0x01, 0x00, 0x00, 0x00,
  0xa1, 0x74, 0xaf, 0x3b, 0x5d, 0x00, 0x00, 0x00, 0x73, 0x65, 0x71, 0x75,
  0x65, 0x6e, 0x74, 0x69, 0x61, 0x6c, 0x5f, 0x33, 0x5f, 0x31, 0x2f, 0x64,
  0x65, 0x6e, 0x73, 0x65, 0x5f, 0x31, 0x31, 0x5f, 0x31, 0x2f, 0x4d, 0x61,
  0x74, 0x4d, 0x75, 0x6c, 0x3b, 0x73, 0x65, 0x71, 0x75, 0x65, 0x6e, 0x74,
  0x69, 0x61, 0x6c, 0x5f, 0x33, 0x5f, 0x31, 0x2f, 0x64, 0x65, 0x6e, 0x73,
  0x65, 0x5f, 0x31, 0x31, 0x5f, 0x31, 0x2f, 0x52, 0x65, 0x6c, 0x75, 0x3b,
  0x73, 0x65, 0x71, 0x75, 0x65, 0x6e, 0x74, 0x69, 0x61, 0x6c, 0x5f, 0x33,
  0x5f, 0x31, 0x2f, 0x64, 0x65, 0x6e, 0x73, 0x65, 0x5f, 0x31, 0x31, 0x5f,
  0x31, 0x2f, 0x41, 0x64, 0x64, 0x00, 0x00, 0x00, 0x02, 0x00, 0x00, 0x00,
  0x01, 0x00, 0x00, 0x00, 0x80, 0x00, 0x00, 0x00, 0x00, 0x00, 0x16, 0x00,
  0x20, 0x00, 0x1c, 0x00, 0x1b, 0x00, 0x14, 0x00, 0x10, 0x00, 0x0c, 0x00,
  0x00, 0x00, 0x00, 0x00, 0x08, 0x00, 0x07, 0x00, 0x16, 0x00, 0x00, 0x00,
  0x00, 0x00, 0x00, 0x01, 0x18, 0x00, 0x00, 0x00, 0x20, 0x00, 0x00, 0x00,
  0x40, 0x00, 0x00, 0x00, 0x08, 0x00, 0x00, 0x00, 0x00, 0x00, 0x00, 0x09,
  0x48, 0x00, 0x00, 0x00, 0x02, 0x00, 0x00, 0x00, 0xff, 0xff, 0xff, 0xff,
  0x07, 0x00, 0x00, 0x00, 0xdc, 0xea, 0xff, 0xff, 0x08, 0x00, 0x00, 0x00,
  0x14, 0x00, 0x00, 0x00, 0x01, 0x00, 0x00, 0x00, 0x08, 0x00, 0x00, 0x00,
  0x00, 0x00, 0x00, 0x00, 0x00, 0x00, 0x00, 0x00, 0x01, 0x00, 0x00, 0x00,
  0x45, 0xbf, 0xe2, 0x3c, 0x0c, 0x00, 0x00, 0x00, 0x74, 0x66, 0x6c, 0x2e,
  0x71, 0x75, 0x61, 0x6e, 0x74, 0x69, 0x7a, 0x65, 0x00, 0x00, 0x00, 0x00,
  0x02, 0x00, 0x00, 0x00, 0x01, 0x00, 0x00, 0x00, 0x07, 0x00, 0x00, 0x00,
  0x52, 0xeb, 0xff, 0xff, 0x00, 0x00, 0x00, 0x01, 0x14, 0x00, 0x00, 0x00,
  0x28, 0x06, 0x00, 0x00, 0x07, 0x00, 0x00, 0x00, 0x00, 0x00, 0x00, 0x09,
  0x34, 0x06, 0x00, 0x00, 0x3c, 0xeb, 0xff, 0xff, 0x08, 0x00, 0x00, 0x00,
  0x0c, 0x04, 0x00, 0x00, 0x80, 0x00, 0x00, 0x00, 0x00, 0x00, 0x00, 0x00,
  0x00, 0x00, 0x00, 0x00, 0x00, 0x00, 0x00, 0x00, 0x00, 0x00, 0x00, 0x00,
  0x00, 0x00, 0x00, 0x00, 0x00, 0x00, 0x00, 0x00, 0x00, 0x00, 0x00, 0x00,
  0x00, 0x00, 0x00, 0x00, 0x00, 0x00, 0x00, 0x00, 0x00, 0x00, 0x00, 0x00,
  0x00, 0x00, 0x00, 0x00, 0x00, 0x00, 0x00, 0x00, 0x00, 0x00, 0x00, 0x00,
  0x00, 0x00, 0x00, 0x00, 0x00, 0x00, 0x00, 0x00, 0x00, 0x00, 0x00, 0x00,
  0x00, 0x00, 0x00, 0x00, 0x00, 0x00, 0x00, 0x00, 0x00, 0x00, 0x00, 0x00,
  0x00, 0x00, 0x00, 0x00, 0x00, 0x00, 0x00, 0x00, 0x00, 0x00, 0x00, 0x00,
  0x00, 0x00, 0x00, 0x00, 0x00, 0x00, 0x00, 0x00, 0x00, 0x00, 0x00, 0x00,
  0x00, 0x00, 0x00, 0x00, 0x00, 0x00, 0x00, 0x00, 0x00, 0x00, 0x00, 0x00,
  0x00, 0x00, 0x00, 0x00, 0x00, 0x00, 0x00, 0x00, 0x00, 0x00, 0x00, 0x00,
  0x00, 0x00, 0x00, 0x00, 0x00, 0x00, 0x00, 0x00, 0x00, 0x00, 0x00, 0x00,
  0x00, 0x00, 0x00, 0x00, 0x00, 0x00, 0x00, 0x00, 0x00, 0x00, 0x00, 0x00,
  0x00, 0x00, 0x00, 0x00, 0x00, 0x00, 0x00, 0x00, 0x00, 0x00, 0x00, 0x00,
  0x00, 0x00, 0x00, 0x00, 0x00, 0x00, 0x00, 0x00, 0x00, 0x00, 0x00, 0x00,
  0x00, 0x00, 0x00, 0x00, 0x00, 0x00, 0x00, 0x00, 0x00, 0x00, 0x00, 0x00,
  0x00, 0x00, 0x00, 0x00, 0x00, 0x00, 0x00, 0x00, 0x00, 0x00, 0x00, 0x00,
  0x00, 0x00, 0x00, 0x00, 0x00, 0x00, 0x00, 0x00, 0x00, 0x00, 0x00, 0x00,
  0x00, 0x00, 0x00, 0x00, 0x00, 0x00, 0x00, 0x00, 0x00, 0x00, 0x00, 0x00,
  0x00, 0x00, 0x00, 0x00, 0x00, 0x00, 0x00, 0x00, 0x00, 0x00, 0x00, 0x00,
  0x00, 0x00, 0x00, 0x00, 0x00, 0x00, 0x00, 0x00, 0x00, 0x00, 0x00, 0x00,
  0x00, 0x00, 0x00, 0x00, 0x00, 0x00, 0x00, 0x00, 0x00, 0x00, 0x00, 0x00,
  0x00, 0x00, 0x00, 0x00, 0x00, 0x00, 0x00, 0x00, 0x00, 0x00, 0x00, 0x00,
  0x00, 0x00, 0x00, 0x00, 0x00, 0x00, 0x00, 0x00, 0x00, 0x00, 0x00, 0x00,
  0x00, 0x00, 0x00, 0x00, 0x00, 0x00, 0x00, 0x00, 0x00, 0x00, 0x00, 0x00,
  0x00, 0x00, 0x00, 0x00, 0x00, 0x00, 0x00, 0x00, 0x00, 0x00, 0x00, 0x00,
  0x00, 0x00, 0x00, 0x00, 0x00, 0x00, 0x00, 0x00, 0x00, 0x00, 0x00, 0x00,
  0x00, 0x00, 0x00, 0x00, 0x00, 0x00, 0x00, 0x00, 0x00, 0x00, 0x00, 0x00,
  0x00, 0x00, 0x00, 0x00, 0x00, 0x00, 0x00, 0x00, 0x00, 0x00, 0x00, 0x00,
  0x00, 0x00, 0x00, 0x00, 0x00, 0x00, 0x00, 0x00, 0x00, 0x00, 0x00, 0x00,
  0x00, 0x00, 0x00, 0x00, 0x00, 0x00, 0x00, 0x00, 0x00, 0x00, 0x00, 0x00,
  0x00, 0x00, 0x00, 0x00, 0x00, 0x00, 0x00, 0x00, 0x00, 0x00, 0x00, 0x00,
  0x00, 0x00, 0x00, 0x00, 0x00, 0x00, 0x00, 0x00, 0x00, 0x00, 0x00, 0x00,
  0x00, 0x00, 0x00, 0x00, 0x00, 0x00, 0x00, 0x00, 0x00, 0x00, 0x00, 0x00,
  0x00, 0x00, 0x00, 0x00, 0x00, 0x00, 0x00, 0x00, 0x00, 0x00, 0x00, 0x00,
  0x00, 0x00, 0x00, 0x00, 0x00, 0x00, 0x00, 0x00, 0x00, 0x00, 0x00, 0x00,
  0x00, 0x00, 0x00, 0x00, 0x00, 0x00, 0x00, 0x00, 0x00, 0x00, 0x00, 0x00,
  0x00, 0x00, 0x00, 0x00, 0x00, 0x00, 0x00, 0x00, 0x00, 0x00, 0x00, 0x00,
  0x00, 0x00, 0x00, 0x00, 0x00, 0x00, 0x00, 0x00, 0x00, 0x00, 0x00, 0x00,
  0x00, 0x00, 0x00, 0x00, 0x00, 0x00, 0x00, 0x00, 0x00, 0x00, 0x00, 0x00,
  0x00, 0x00, 0x00, 0x00, 0x00, 0x00, 0x00, 0x00, 0x00, 0x00, 0x00, 0x00,
  0x00, 0x00, 0x00, 0x00, 0x00, 0x00, 0x00, 0x00, 0x00, 0x00, 0x00, 0x00,
  0x00, 0x00, 0x00, 0x00, 0x00, 0x00, 0x00, 0x00, 0x00, 0x00, 0x00, 0x00,
  0x00, 0x00, 0x00, 0x00, 0x00, 0x00, 0x00, 0x00, 0x00, 0x00, 0x00, 0x00,
  0x00, 0x00, 0x00, 0x00, 0x00, 0x00, 0x00, 0x00, 0x00, 0x00, 0x00, 0x00,
  0x00, 0x00, 0x00, 0x00, 0x00, 0x00, 0x00, 0x00, 0x00, 0x00, 0x00, 0x00,
  0x00, 0x00, 0x00, 0x00, 0x00, 0x00, 0x00, 0x00, 0x00, 0x00, 0x00, 0x00,
  0x00, 0x00, 0x00, 0x00, 0x00, 0x00, 0x00, 0x00, 0x00, 0x00, 0x00, 0x00,
  0x00, 0x00, 0x00, 0x00, 0x00, 0x00, 0x00, 0x00, 0x00, 0x00, 0x00, 0x00,
  0x00, 0x00, 0x00, 0x00, 0x00, 0x00, 0x00, 0x00, 0x00, 0x00, 0x00, 0x00,
  0x00, 0x00, 0x00, 0x00, 0x00, 0x00, 0x00, 0x00, 0x00, 0x00, 0x00, 0x00,
  0x00, 0x00, 0x00, 0x00, 0x00, 0x00, 0x00, 0x00, 0x00, 0x00, 0x00, 0x00,
  0x00, 0x00, 0x00, 0x00, 0x00, 0x00, 0x00, 0x00, 0x00, 0x00, 0x00, 0x00,
  0x00, 0x00, 0x00, 0x00, 0x00, 0x00, 0x00, 0x00, 0x00, 0x00, 0x00, 0x00,
  0x00, 0x00, 0x00, 0x00, 0x00, 0x00, 0x00, 0x00, 0x00, 0x00, 0x00, 0x00,
  0x00, 0x00, 0x00, 0x00, 0x00, 0x00, 0x00, 0x00, 0x00, 0x00, 0x00, 0x00,
  0x00, 0x00, 0x00, 0x00, 0x00, 0x00, 0x00, 0x00, 0x00, 0x00, 0x00, 0x00,
  0x00, 0x00, 0x00, 0x00, 0x00, 0x00, 0x00, 0x00, 0x00, 0x00, 0x00, 0x00,
  0x00, 0x00, 0x00, 0x00, 0x00, 0x00, 0x00, 0x00, 0x00, 0x00, 0x00, 0x00,
  0x00, 0x00, 0x00, 0x00, 0x00, 0x00, 0x00, 0x00, 0x00, 0x00, 0x00, 0x00,
  0x00, 0x00, 0x00, 0x00, 0x00, 0x00, 0x00, 0x00, 0x00, 0x00, 0x00, 0x00,
  0x00, 0x00, 0x00, 0x00, 0x00, 0x00, 0x00, 0x00, 0x00, 0x00, 0x00, 0x00,
  0x00, 0x00, 0x00, 0x00, 0x00, 0x00, 0x00, 0x00, 0x00, 0x00, 0x00, 0x00,
  0x00, 0x00, 0x00, 0x00, 0x00, 0x00, 0x00, 0x00, 0x00, 0x00, 0x00, 0x00,
  0x00, 0x00, 0x00, 0x00, 0x00, 0x00, 0x00, 0x00, 0x00, 0x00, 0x00, 0x00,
  0x00, 0x00, 0x00, 0x00, 0x00, 0x00, 0x00, 0x00, 0x00, 0x00, 0x00, 0x00,
  0x00, 0x00, 0x00, 0x00, 0x00, 0x00, 0x00, 0x00, 0x00, 0x00, 0x00, 0x00,
  0x00, 0x00, 0x00, 0x00, 0x00, 0x00, 0x00, 0x00, 0x00, 0x00, 0x00, 0x00,
  0x00, 0x00, 0x00, 0x00, 0x00, 0x00, 0x00, 0x00, 0x00, 0x00, 0x00, 0x00,
  0x00, 0x00, 0x00, 0x00, 0x00, 0x00, 0x00, 0x00, 0x00, 0x00, 0x00, 0x00,
  0x00, 0x00, 0x00, 0x00, 0x00, 0x00, 0x00, 0x00, 0x00, 0x00, 0x00, 0x00,
  0x00, 0x00, 0x00, 0x00, 0x00, 0x00, 0x00, 0x00, 0x00, 0x00, 0x00, 0x00,
  0x00, 0x00, 0x00, 0x00, 0x00, 0x00, 0x00, 0x00, 0x00, 0x00, 0x00, 0x00,
  0x00, 0x00, 0x00, 0x00, 0x00, 0x00, 0x00, 0x00, 0x00, 0x00, 0x00, 0x00,
  0x00, 0x00, 0x00, 0x00, 0x00, 0x00, 0x00, 0x00, 0x00, 0x00, 0x00, 0x00,
  0x00, 0x00, 0x00, 0x00, 0x00, 0x00, 0x00, 0x00, 0x00, 0x00, 0x00, 0x00,
  0x00, 0x00, 0x00, 0x00, 0x00, 0x00, 0x00, 0x00, 0x00, 0x00, 0x00, 0x00,
  0x00, 0x00, 0x00, 0x00, 0x00, 0x00, 0x00, 0x00, 0x00, 0x00, 0x00, 0x00,
  0x00, 0x00, 0x00, 0x00, 0x00, 0x00, 0x00, 0x00, 0x00, 0x00, 0x00, 0x00,
  0x00, 0x00, 0x00, 0x00, 0x00, 0x00, 0x00, 0x00, 0x00, 0x00, 0x00, 0x00,
  0x00, 0x00, 0x00, 0x00, 0x00, 0x00, 0x00, 0x00, 0x00, 0x00, 0x00, 0x00,
  0x00, 0x00, 0x00, 0x00, 0x00, 0x00, 0x00, 0x00, 0x00, 0x00, 0x00, 0x00,
  0x00, 0x00, 0x00, 0x00, 0x00, 0x00, 0x00, 0x00, 0x00, 0x00, 0x00, 0x00,
  0x00, 0x00, 0x00, 0x00, 0x00, 0x00, 0x00, 0x00, 0x00, 0x00, 0x00, 0x00,
  0x00, 0x00, 0x00, 0x00, 0x00, 0x00, 0x00, 0x00, 0x00, 0x00, 0x00, 0x00,
  0x00, 0x00, 0x00, 0x00, 0x00, 0x00, 0x00, 0x00, 0x00, 0x00, 0x00, 0x00,
  0x00, 0x00, 0x00, 0x00, 0x80, 0x00, 0x00, 0x00, 0x43, 0xa3, 0x9d, 0x3a,
  0x8e, 0x91, 0x9b, 0x3a, 0x33, 0xe4, 0xe3, 0x3a, 0x0a, 0x1b, 0x01, 0x3b,
  0x39, 0xe9, 0xea, 0x3a, 0xca, 0xcb, 0xfa, 0x3a, 0xe9, 0x1d, 0x8c, 0x3a,
  0x84, 0x9f, 0xd9, 0x3a, 0xfb, 0xc6, 0x30, 0x3b, 0x22, 0x22, 0xb1, 0x3a,
  0xfc, 0x64, 0xb9, 0x3a, 0x61, 0x78, 0x0d, 0x3b, 0x9f, 0x3a, 0xa9, 0x3a,
  0xf9, 0x59, 0xeb, 0x3a, 0xcf, 0xe8, 0xd3, 0x3a, 0x84, 0x6d, 0xa1, 0x3a,
  0x32, 0xca, 0xf3, 0x3a, 0x43, 0x44, 0x6e, 0x3a, 0x46, 0x01, 0x95, 0x3a,
  0x86, 0xb5, 0xc3, 0x3a, 0x60, 0x27, 0xf4, 0x3a, 0xc8, 0x97, 0x9e, 0x3a,
  0x62, 0x55, 0xd8, 0x3a, 0x61, 0x86, 0xf0, 0x3a, 0xaa, 0xb3, 0xce, 0x3a,
  0x9b, 0xd4, 0xa7, 0x3a, 0xab, 0x6a, 0xc6, 0x3a, 0x11, 0x03, 0xb3, 0x3a,
  0x34, 0x35, 0x62, 0x3a, 0x8e, 0x03, 0x17, 0x3b, 0x78, 0x65, 0xaa, 0x3a,
  0x93, 0x6d, 0xd0, 0x3a, 0x0f, 0x77, 0xdf, 0x3a, 0xed, 0xcd, 0xec, 0x3a,
  0x14, 0x28, 0xd1, 0x3a, 0x77, 0x9d, 0xbd, 0x3a, 0x26, 0x43, 0xf0, 0x3a,
  0x80, 0x18, 0x76, 0x3a, 0x42, 0x40, 0xdc, 0x3a, 0x08, 0x2f, 0xd0, 0x3a,
  0xe7, 0x8f, 0x12, 0x3b, 0x1d, 0xac, 0xd9, 0x3a, 0xe5, 0xfe, 0xe9, 0x3a,
  0x61, 0xea, 0x00, 0x3b, 0xc3, 0x34, 0xde, 0x3a, 0xaa, 0xee, 0xb9, 0x3a,
  0xf2, 0xc9, 0xea, 0x3a, 0xaa, 0xfe, 0x98, 0x3a, 0x54, 0xe6, 0xb0, 0x3a,
  0x78, 0x7f, 0x2b, 0x3b, 0x29, 0x2c, 0xec, 0x3a, 0x68, 0x0b, 0xc5, 0x3a,
  0x4e, 0x58, 0x27, 0x3b, 0x6c, 0xd8, 0xf5, 0x3a, 0x9e, 0x67, 0xe4, 0x3a,
  0x30, 0x79, 0xba, 0x3a, 0x8d, 0xbd, 0xf3, 0x3a, 0x76, 0xae, 0xc7, 0x3a,
  0xf7, 0xf2, 0xcb, 0x3a, 0xf6, 0x60, 0x86, 0x3a, 0xd7, 0x36, 0xc8, 0x3a,
  0xe3, 0x25, 0xb9, 0x3a, 0x31, 0xf3, 0xa4, 0x3a, 0x24, 0xd9, 0xb8, 0x3a,
  0xb5, 0x06, 0xb5, 0x3a, 0xf1, 0xc6, 0xb6, 0x3a, 0x4a, 0xb1, 0xa7, 0x3a,
  0xbd, 0xf9, 0x87, 0x3a, 0x21, 0x27, 0xbb, 0x3a, 0xd0, 0xaf, 0xca, 0x3a,
  0x0e, 0xd2, 0xc0, 0x3a, 0xd9, 0x21, 0xa8, 0x3a, 0x05, 0xef, 0xfd, 0x3a,
  0x6e, 0x1c, 0x9b, 0x3a, 0x93, 0x8a, 0x87, 0x3a, 0x54, 0x69, 0xd2, 0x3a,
  0xf2, 0x33, 0xda, 0x3a, 0xa8, 0xb7, 0x91, 0x3a, 0x96, 0x29, 0xc6, 0x3a,
  0x57, 0x60, 0x85, 0x3a, 0x6d, 0x38, 0xbc, 0x3a, 0xab, 0x3c, 0x2e, 0x3b,
  0xde, 0x6d, 0xc9, 0x3a, 0x16, 0xf8, 0xfe, 0x3a, 0xbf, 0xbd, 0xb0, 0x3a,
  0xbf, 0x09, 0xe8, 0x3a, 0x42, 0x11, 0xa9, 0x3a, 0xe7, 0x29, 0xba, 0x3a,
  0x63, 0x8e, 0xbc, 0x3a, 0xd5, 0xc4, 0xb3, 0x3a, 0x21, 0xf6, 0xfb, 0x3a,
  0x54, 0x3d, 0x23, 0x3b, 0x19, 0x1d, 0xb0, 0x3a, 0xa3, 0xbd, 0xb3, 0x3a,
  0x6d, 0xc3, 0xd4, 0x3a, 0x6d, 0x22, 0xc3, 0x3a, 0xae, 0x48, 0x16, 0x3b,
  0x17, 0xfa, 0xeb, 0x3a, 0x6f, 0x63, 0x9f, 0x3a, 0x9a, 0x02, 0xbf, 0x3a,
  0x62, 0x93, 0xa1, 0x3a, 0x71, 0xde, 0xc8, 0x3a, 0x76, 0x34, 0x87, 0x3a,
  0x4d, 0x82, 0x99, 0x3a, 0xee, 0x6c, 0xb5, 0x3a, 0x3d, 0x41, 0xc6, 0x3a,
  0x02, 0x93, 0xa1, 0x3a, 0x85, 0x40, 0xaf, 0x3a, 0xdf, 0x5e, 0x20, 0x3b,
  0x13, 0x7e, 0x9b, 0x3a, 0x48, 0x19, 0x9f, 0x3a, 0x5d, 0x34, 0xf0, 0x3a,
  0x5c, 0xeb, 0xc8, 0x3a, 0x86, 0x45, 0x01, 0x3b, 0xef, 0x25, 0xfa, 0x3a,
  0x75, 0x23, 0xac, 0x3a, 0x4b, 0xaa, 0x17, 0x3b, 0xd8, 0x47, 0xa0, 0x3a,
  0x3b, 0xe5, 0x25, 0x3b, 0x39, 0x41, 0xf0, 0x3a, 0xf0, 0x30, 0xdf, 0x3a,
  0x99, 0xd4, 0xdc, 0x3a, 0x1c, 0x6d, 0xd6, 0x3a, 0x37, 0xa2, 0x82, 0x3a,
  0x4e, 0x33, 0x99, 0x3a, 0xd0, 0x66, 0x61, 0x3a, 0xae, 0xf1, 0xa0, 0x3a,
  0xcc, 0x9e, 0xcb, 0x3a, 0x12, 0x00, 0x00, 0x00, 0x74, 0x66, 0x6c, 0x2e,
  0x70, 0x73, 0x65, 0x75, 0x64, 0x6f, 0x5f, 0x71, 0x63, 0x6f, 0x6e, 0x73,
  0x74, 0x35, 0x00, 0x00, 0x02, 0x00, 0x00, 0x00, 0x80, 0x00, 0x00, 0x00,
  0x07, 0x00, 0x00, 0x00, 0xaa, 0xf1, 0xff, 0xff, 0x00, 0x00, 0x00, 0x01,
  0x14, 0x00, 0x00, 0x00, 0x24, 0x06, 0x00, 0x00, 0x06, 0x00, 0x00, 0x00,
  0x00, 0x00, 0x00, 0x02, 0x30, 0x06, 0x00, 0x00, 0x94, 0xf1, 0xff, 0xff,
  0x08, 0x00, 0x00, 0x00, 0x08, 0x04, 0x00, 0x00, 0x80, 0x00, 0x00, 0x00,
  0x00, 0x00, 0x00, 0x00, 0x00, 0x00, 0x00, 0x00, 0x00, 0x00, 0x00, 0x00,
  0x00, 0x00, 0x00, 0x00, 0x00, 0x00, 0x00, 0x00, 0x00, 0x00, 0x00, 0x00,
  0x00, 0x00, 0x00, 0x00, 0x00, 0x00, 0x00, 0x00, 0x00, 0x00, 0x00, 0x00,
  0x00, 0x00, 0x00, 0x00, 0x00, 0x00, 0x00, 0x00, 0x00, 0x00, 0x00, 0x00,
  0x00, 0x00, 0x00, 0x00, 0x00, 0x00, 0x00, 0x00, 0x00, 0x00, 0x00, 0x00,
  0x00, 0x00, 0x00, 0x00, 0x00, 0x00, 0x00, 0x00, 0x00, 0x00, 0x00, 0x00,
  0x00, 0x00, 0x00, 0x00, 0x00, 0x00, 0x00, 0x00, 0x00, 0x00, 0x00, 0x00,
  0x00, 0x00, 0x00, 0x00, 0x00, 0x00, 0x00, 0x00, 0x00, 0x00, 0x00, 0x00,
  0x00, 0x00, 0x00, 0x00, 0x00, 0x00, 0x00, 0x00, 0x00, 0x00, 0x00, 0x00,
  0x00, 0x00, 0x00, 0x00, 0x00, 0x00, 0x00, 0x00, 0x00, 0x00, 0x00, 0x00,
  0x00, 0x00, 0x00, 0x00, 0x00, 0x00, 0x00, 0x00, 0x00, 0x00, 0x00, 0x00,
  0x00, 0x00, 0x00, 0x00, 0x00, 0x00, 0x00, 0x00, 0x00, 0x00, 0x00, 0x00,
  0x00, 0x00, 0x00, 0x00, 0x00, 0x00, 0x00, 0x00, 0x00, 0x00, 0x00, 0x00,
  0x00, 0x00, 0x00, 0x00, 0x00, 0x00, 0x00, 0x00, 0x00, 0x00, 0x00, 0x00,
  0x00, 0x00, 0x00, 0x00, 0x00, 0x00, 0x00, 0x00, 0x00, 0x00, 0x00, 0x00,
  0x00, 0x00, 0x00, 0x00, 0x00, 0x00, 0x00, 0x00, 0x00, 0x00, 0x00, 0x00,
  0x00, 0x00, 0x00, 0x00, 0x00, 0x00, 0x00, 0x00, 0x00, 0x00, 0x00, 0x00,
  0x00, 0x00, 0x00, 0x00, 0x00, 0x00, 0x00, 0x00, 0x00, 0x00, 0x00, 0x00,
  0x00, 0x00, 0x00, 0x00, 0x00, 0x00, 0x00, 0x00, 0x00, 0x00, 0x00, 0x00,
  0x00, 0x00, 0x00, 0x00, 0x00, 0x00, 0x00, 0x00, 0x00, 0x00, 0x00, 0x00,
  0x00, 0x00, 0x00, 0x00, 0x00, 0x00, 0x00, 0x00, 0x00, 0x00, 0x00, 0x00,
  0x00, 0x00, 0x00, 0x00, 0x00, 0x00, 0x00, 0x00, 0x00, 0x00, 0x00, 0x00,
  0x00, 0x00, 0x00, 0x00, 0x00, 0x00, 0x00, 0x00, 0x00, 0x00, 0x00, 0x00,
  0x00, 0x00, 0x00, 0x00, 0x00, 0x00, 0x00, 0x00, 0x00, 0x00, 0x00, 0x00,
  0x00, 0x00, 0x00, 0x00, 0x00, 0x00, 0x00, 0x00, 0x00, 0x00, 0x00, 0x00,
  0x00, 0x00, 0x00, 0x00, 0x00, 0x00, 0x00, 0x00, 0x00, 0x00, 0x00, 0x00,
  0x00, 0x00, 0x00, 0x00, 0x00, 0x00, 0x00, 0x00, 0x00, 0x00, 0x00, 0x00,
  0x00, 0x00, 0x00, 0x00, 0x00, 0x00, 0x00, 0x00, 0x00, 0x00, 0x00, 0x00,
  0x00, 0x00, 0x00, 0x00, 0x00, 0x00, 0x00, 0x00, 0x00, 0x00, 0x00, 0x00,
  0x00, 0x00, 0x00, 0x00, 0x00, 0x00, 0x00, 0x00, 0x00, 0x00, 0x00, 0x00,
  0x00, 0x00, 0x00, 0x00, 0x00, 0x00, 0x00, 0x00, 0x00, 0x00, 0x00, 0x00,
  0x00, 0x00, 0x00, 0x00, 0x00, 0x00, 0x00, 0x00, 0x00, 0x00, 0x00, 0x00,
  0x00, 0x00, 0x00, 0x00, 0x00, 0x00, 0x00, 0x00, 0x00, 0x00, 0x00, 0x00,
  0x00, 0x00, 0x00, 0x00, 0x00, 0x00, 0x00, 0x00, 0x00, 0x00, 0x00, 0x00,
  0x00, 0x00, 0x00, 0x00, 0x00, 0x00, 0x00, 0x00, 0x00, 0x00, 0x00, 0x00,
  0x00, 0x00, 0x00, 0x00, 0x00, 0x00, 0x00, 0x00, 0x00, 0x00, 0x00, 0x00,
  0x00, 0x00, 0x00, 0x00, 0x00, 0x00, 0x00, 0x00, 0x00, 0x00, 0x00, 0x00,
  0x00, 0x00, 0x00, 0x00, 0x00, 0x00, 0x00, 0x00, 0x00, 0x00, 0x00, 0x00,
  0x00, 0x00, 0x00, 0x00, 0x00, 0x00, 0x00, 0x00, 0x00, 0x00, 0x00, 0x00,
  0x00, 0x00, 0x00, 0x00, 0x00, 0x00, 0x00, 0x00, 0x00, 0x00, 0x00, 0x00,
  0x00, 0x00, 0x00, 0x00, 0x00, 0x00, 0x00, 0x00, 0x00, 0x00, 0x00, 0x00,
  0x00, 0x00, 0x00, 0x00, 0x00, 0x00, 0x00, 0x00, 0x00, 0x00, 0x00, 0x00,
  0x00, 0x00, 0x00, 0x00, 0x00, 0x00, 0x00, 0x00, 0x00, 0x00, 0x00, 0x00,
  0x00, 0x00, 0x00, 0x00, 0x00, 0x00, 0x00, 0x00, 0x00, 0x00, 0x00, 0x00,
  0x00, 0x00, 0x00, 0x00, 0x00, 0x00, 0x00, 0x00, 0x00, 0x00, 0x00, 0x00,
  0x00, 0x00, 0x00, 0x00, 0x00, 0x00, 0x00, 0x00, 0x00, 0x00, 0x00, 0x00,
  0x00, 0x00, 0x00, 0x00, 0x00, 0x00, 0x00, 0x00, 0x00, 0x00, 0x00, 0x00,
  0x00, 0x00, 0x00, 0x00, 0x00, 0x00, 0x00, 0x00, 0x00, 0x00, 0x00, 0x00,
  0x00, 0x00, 0x00, 0x00, 0x00, 0x00, 0x00, 0x00, 0x00, 0x00, 0x00, 0x00,
  0x00, 0x00, 0x00, 0x00, 0x00, 0x00, 0x00, 0x00, 0x00, 0x00, 0x00, 0x00,
  0x00, 0x00, 0x00, 0x00, 0x00, 0x00, 0x00, 0x00, 0x00, 0x00, 0x00, 0x00,
  0x00, 0x00, 0x00, 0x00, 0x00, 0x00, 0x00, 0x00, 0x00, 0x00, 0x00, 0x00,
  0x00, 0x00, 0x00, 0x00, 0x00, 0x00, 0x00, 0x00, 0x00, 0x00, 0x00, 0x00,
  0x00, 0x00, 0x00, 0x00, 0x00, 0x00, 0x00, 0x00, 0x00, 0x00, 0x00, 0x00,
  0x00, 0x00, 0x00, 0x00, 0x00, 0x00, 0x00, 0x00, 0x00, 0x00, 0x00, 0x00,
  0x00, 0x00, 0x00, 0x00, 0x00, 0x00, 0x00, 0x00, 0x00, 0x00, 0x00, 0x00,
  0x00, 0x00, 0x00, 0x00, 0x00, 0x00, 0x00, 0x00, 0x00, 0x00, 0x00, 0x00,
  0x00, 0x00, 0x00, 0x00, 0x00, 0x00, 0x00, 0x00, 0x00, 0x00, 0x00, 0x00,
  0x00, 0x00, 0x00, 0x00, 0x00, 0x00, 0x00, 0x00, 0x00, 0x00, 0x00, 0x00,
  0x00, 0x00, 0x00, 0x00, 0x00, 0x00, 0x00, 0x00, 0x00, 0x00, 0x00, 0x00,
  0x00, 0x00, 0x00, 0x00, 0x00, 0x00, 0x00, 0x00, 0x00, 0x00, 0x00, 0x00,
  0x00, 0x00, 0x00, 0x00, 0x00, 0x00, 0x00, 0x00, 0x00, 0x00, 0x00, 0x00,
  0x00, 0x00, 0x00, 0x00, 0x00, 0x00, 0x00, 0x00, 0x00, 0x00, 0x00, 0x00,
  0x00, 0x00, 0x00, 0x00, 0x00, 0x00, 0x00, 0x00, 0x00, 0x00, 0x00, 0x00,
  0x00, 0x00, 0x00, 0x00, 0x00, 0x00, 0x00, 0x00, 0x00, 0x00, 0x00, 0x00,
  0x00, 0x00, 0x00, 0x00, 0x00, 0x00, 0x00, 0x00, 0x00, 0x00, 0x00, 0x00,
  0x00, 0x00, 0x00, 0x00, 0x00, 0x00, 0x00, 0x00, 0x00, 0x00, 0x00, 0x00,
  0x00, 0x00, 0x00, 0x00, 0x00, 0x00, 0x00, 0x00, 0x00, 0x00, 0x00, 0x00,
  0x00, 0x00, 0x00, 0x00, 0x00, 0x00, 0x00, 0x00, 0x00, 0x00, 0x00, 0x00,
  0x00, 0x00, 0x00, 0x00, 0x00, 0x00, 0x00, 0x00, 0x00, 0x00, 0x00, 0x00,
  0x00, 0x00, 0x00, 0x00, 0x00, 0x00, 0x00, 0x00, 0x00, 0x00, 0x00, 0x00,
  0x00, 0x00, 0x00, 0x00, 0x00, 0x00, 0x00, 0x00, 0x00, 0x00, 0x00, 0x00,
  0x00, 0x00, 0x00, 0x00, 0x00, 0x00, 0x00, 0x00, 0x00, 0x00, 0x00, 0x00,
  0x00, 0x00, 0x00, 0x00, 0x00, 0x00, 0x00, 0x00, 0x00, 0x00, 0x00, 0x00,
  0x00, 0x00, 0x00, 0x00, 0x00, 0x00, 0x00, 0x00, 0x00, 0x00, 0x00, 0x00,
  0x00, 0x00, 0x00, 0x00, 0x00, 0x00, 0x00, 0x00, 0x00, 0x00, 0x00, 0x00,
  0x00, 0x00, 0x00, 0x00, 0x00, 0x00, 0x00, 0x00, 0x00, 0x00, 0x00, 0x00,
